{
    "version": 1,
    "special_tokens": {
        "<bos>": 0,
        "<eos>": 1,
        "<pad>": 2,
        "<unk>": 3,
        "<mask>": 4
    },
    "vocab": {
        "<bos>": 0,
        "<eos>": 1,
        "<pad>": 2,
        "<unk>": 3,
        "<mask>": 4,
        "!": 5,
        "\"": 6,
        "#": 7,
        "$": 8,
        "%": 9,
        "&": 10,
        "'": 11,
        "(": 12,
        ")": 13,
        "*": 14,
        "+": 15,
        ",": 16,
        "-": 17,
        ".": 18,
        "/": 19,
        "0": 20,
        "1": 21,
        "2": 22,
        "3": 23,
        "4": 24,
        "5": 25,
        "6": 26,
        "7": 27,
        "8": 28,
        "9": 29,
        ":": 30,
        ";": 31,
        "<": 32,
        "=": 33,
        ">": 34,
        "?": 35,
        "@": 36,
        "A": 37,
        "B": 38,
        "C": 39,
        "D": 40,
        "E": 41,
        "F": 42,
        "G": 43,
        "H": 44,
        "I": 45,
        "J": 46,
        "K": 47,
        "L": 48,
        "M": 49,
        "N": 50,
        "O": 51,
        "P": 52,
        "Q": 53,
        "R": 54,
        "S": 55,
        "T": 56,
        "U": 57,
        "V": 58,
        "W": 59,
        "X": 60,
        "Y": 61,
        "Z": 62,
        "[": 63,
        "\\": 64,
        "]": 65,
        "^": 66,
        "_": 67,
        "`": 68,
        "a": 69,
        "b": 70,
        "c": 71,
        "d": 72,
        "e": 73,
        "f": 74,
        "g": 75,
        "h": 76,
        "i": 77,
        "j": 78,
        "k": 79,
        "l": 80,
        "m": 81,
        "n": 82,
        "o": 83,
        "p": 84,
        "q": 85,
        "r": 86,
        "s": 87,
        "t": 88,
        "u": 89,
        "v": 90,
        "w": 91,
        "x": 92,
        "y": 93,
        "z": 94,
        "{": 95,
        "|": 96,
        "}": 97,
        "~": 98,
        "¡": 99,
        "¢": 100,
        "£": 101,
        "¤": 102,
        "¥": 103,
        "¦": 104,
        "§": 105,
        "¨": 106,
        "©": 107,
        "ª": 108,
        "«": 109,
        "¬": 110,
        "®": 111,
        "¯": 112,
        "°": 113,
        "±": 114,
        "²": 115,
        "³": 116,
        "´": 117,
        "µ": 118,
        "¶": 119,
        "·": 120,
        "¸": 121,
        "¹": 122,
        "º": 123,
        "»": 124,
        "¼": 125,
        "½": 126,
        "¾": 127,
        "¿": 128,
        "À": 129,
        "Á": 130,
        "Â": 131,
        "Ã": 132,
        "Ä": 133,
        "Å": 134,
        "Æ": 135,
        "Ç": 136,
        "È": 137,
        "É": 138,
        "Ê": 139,
        "Ë": 140,
        "Ì": 141,
        "Í": 142,
        "Î": 143,
        "Ï": 144,
        "Ð": 145,
        "Ñ": 146,
        "Ò": 147,
        "Ó": 148,
        "Ô": 149,
        "Õ": 150,
        "Ö": 151,
        "×": 152,
        "Ø": 153,
        "Ù": 154,
        "Ú": 155,
        "Û": 156,
        "Ü": 157,
        "Ý": 158,
        "Þ": 159,
        "ß": 160,
        "à": 161,
        "á": 162,
        "â": 163,
        "ã": 164,
        "ä": 165,
        "å": 166,
        "æ": 167,
        "ç": 168,
        "è": 169,
        "é": 170,
        "ê": 171,
        "ë": 172,
        "ì": 173,
        "í": 174,
        "î": 175,
        "ï": 176,
        "ð": 177,
        "ñ": 178,
        "ò": 179,
        "ó": 180,
        "ô": 181,
        "õ": 182,
        "ö": 183,
        "÷": 184,
        "ø": 185,
        "ù": 186,
        "ú": 187,
        "û": 188,
        "ü": 189,
        "ý": 190,
        "þ": 191,
        "ÿ": 192,
        "Ā": 193,
        "ā": 194,
        "Ă": 195,
        "ă": 196,
        "Ą": 197,
        "ą": 198,
        "Ć": 199,
        "ć": 200,
        "Ĉ": 201,
        "ĉ": 202,
        "Ċ": 203,
        "ċ": 204,
        "Č": 205,
        "č": 206,
        "Ď": 207,
        "ď": 208,
        "Đ": 209,
        "đ": 210,
        "Ē": 211,
        "ē": 212,
        "Ĕ": 213,
        "ĕ": 214,
        "Ė": 215,
        "ė": 216,
        "Ę": 217,
        "ę": 218,
        "Ě": 219,
        "ě": 220,
        "Ĝ": 221,
        "ĝ": 222,
        "Ğ": 223,
        "ğ": 224,
        "Ġ": 225,
        "ġ": 226,
        "Ģ": 227,
        "ģ": 228,
        "Ĥ": 229,
        "ĥ": 230,
        "Ħ": 231,
        "ħ": 232,
        "Ĩ": 233,
        "ĩ": 234,
        "Ī": 235,
        "ī": 236,
        "Ĭ": 237,
        "ĭ": 238,
        "Į": 239,
        "į": 240,
        "İ": 241,
        "ı": 242,
        "Ĳ": 243,
        "ĳ": 244,
        "Ĵ": 245,
        "ĵ": 246,
        "Ķ": 247,
        "ķ": 248,
        "ĸ": 249,
        "Ĺ": 250,
        "ĺ": 251,
        "Ļ": 252,
        "ļ": 253,
        "Ľ": 254,
        "ľ": 255,
        "Ŀ": 256,
        "ŀ": 257,
        "Ł": 258,
        "ł": 259,
        "Ń": 260,
        "Ġt": 261,
        "Ġa": 262,
        "he": 263,
        "in": 264,
        "er": 265,
        "on": 266,
        "Ġthe": 267,
        "re": 268,
        "Ġo": 269,
        "st": 270,
        "an": 271,
        "at": 272,
        "ed": 273,
        "en": 274,
        "Ġw": 275,
        "or": 276,
        "Ġc": 277,
        "it": 278,
        "Ġs": 279,
        "nd": 280,
        "ar": 281,
        "al": 282,
        "Ġin": 283,
        "Ġof": 284,
        "is": 285,
        "Ġf": 286,
        "es": 287,
        "Ġp": 288,
        "Ġb": 289,
        "Ġand": 290,
        "ic": 291,
        "ion": 292,
        "ing": 293,
        "Ġm": 294,
        "ro": 295,
        "as": 296,
        "Ġd": 297,
        "le": 298,
        "Ġto": 299,
        "ct": 300,
        "ou": 301,
        "Ġh": 302,
        "ent": 303,
        "ĠS": 304,
        "ĠT": 305,
        "ĠA": 306,
        "il": 307,
        "om": 308,
        "Ġre": 309,
        "am": 310,
        "el": 311,
        "Ġl": 312,
        "Ġ1": 313,
        "Ġe": 314,
        "Ġis": 315,
        "ĠC": 316,
        "ol": 317,
        "et": 318,
        "Ġn": 319,
        "iv": 320,
        "Ġth": 321,
        "ist": 322,
        "ra": 323,
        "ch": 324,
        "ĠM": 325,
        "ation": 326,
        "ur": 327,
        "ĠI": 328,
        "ly": 329,
        "id": 330,
        "ce": 331,
        "Ġg": 332,
        "im": 333,
        "Ġas": 334,
        "ĠB": 335,
        "us": 336,
        "ig": 337,
        "Ġon": 338,
        "Ġfor": 339,
        "Ġ(": 340,
        "ĠThe": 341,
        "Ġwas": 342,
        "ir": 343,
        "ow": 344,
        "Ġbe": 345,
        "Ġ2": 346,
        "ers": 347,
        "ad": 348,
        "ĠP": 349,
        "ut": 350,
        "ĠH": 351,
        "ot": 352,
        "ay": 353,
        "ul": 354,
        "ith": 355,
        "ĠW": 356,
        "ant": 357,
        "ru": 358,
        "Ġst": 359,
        "ge": 360,
        "ĠG": 361,
        "Ġwith": 362,
        "Ġ19": 363,
        "ss": 364,
        "Ġby": 365,
        "em": 366,
        "ĠF": 367,
        "Ġwh": 368,
        "th": 369,
        "ction": 370,
        "her": 371,
        "ĠR": 372,
        "ĠN": 373,
        "Ġ20": 374,
        "Ġan": 375,
        "and": 376,
        "ĠD": 377,
        "un": 378,
        "rom": 379,
        "Ġcon": 380,
        "ĠE": 381,
        "ĠL": 382,
        "ver": 383,
        "Ġal": 384,
        "ter": 385,
        "um": 386,
        "'s": 387,
        "Ġcom": 388,
        "Ġpro": 389,
        "Ġde": 390,
        "ies": 391,
        "Ġthat": 392,
        "if": 393,
        "Ġor": 394,
        "Ġare": 395,
        "od": 396,
        "op": 397,
        "Ġat": 398,
        "Ġv": 399,
        "Ġit": 400,
        "ĠJ": 401,
        "ac": 402,
        "ity": 403,
        "ate": 404,
        "Ġfrom": 405,
        "In": 406,
        "ain": 407,
        "os": 408,
        "ia": 409,
        "oc": 410,
        "av": 411,
        "Ġse": 412,
        "Ġhe": 413,
        "ser": 414,
        "ĠU": 415,
        "stru": 416,
        "ab": 417,
        "ld": 418,
        "Ġsu": 419,
        "pe": 420,
        "ill": 421,
        "ri": 422,
        "ore": 423,
        "qu": 424,
        "struction": 425,
        "all": 426,
        "ud": 427,
        "ich": 428,
        "ess": 429,
        "ĠO": 430,
        "est": 431,
        "art": 432,
        "Ġex": 433,
        "Ġ\"": 434,
        "ber": 435,
        "ive": 436,
        "ag": 437,
        "istant": 438,
        "ated": 439,
        "Instruction": 440,
        "Ass": 441,
        "User": 442,
        "Assistant": 443,
        "ard": 444,
        "ure": 445,
        "nt": 446,
        "igh": 447,
        "ort": 448,
        "ial": 449,
        "ast": 450,
        "ap": 451,
        "ment": 452,
        "ian": 453,
        "00": 454,
        "ak": 455,
        "ear": 456,
        "Ġpl": 457,
        "ĠIn": 458,
        "ost": 459,
        "ame": 460,
        "ical": 461,
        "ĠK": 462,
        "Ġch": 463,
        "Ġk": 464,
        "end": 465,
        "Ġhis": 466,
        "ip": 467,
        "âĢ": 468,
        "Ġcomp": 469,
        "ran": 470,
        "ĠSt": 471,
        "og": 472,
        "Ġwhich": 473,
        "ell": 474,
        "du": 475,
        "se": 476,
        "Ġus": 477,
        "mer": 478,
        "up": 479,
        "our": 480,
        "cl": 481,
        "Ġte": 482,
        "Ġwor": 483,
        "ew": 484,
        "ire": 485,
        "Ġle": 486,
        "age": 487,
        "ov": 488,
        "ary": 489,
        "ine": 490,
        "ong": 491,
        "Ġy": 492,
        "pl": 493,
        "ric": 494,
        "irst": 495,
        "so": 496,
        "und": 497,
        "gh": 498,
        "ther": 499,
        "pt": 500,
        "Ġpre": 501,
        "ub": 502,
        "Ġhas": 503,
        "ĠIt": 504,
        "Ġ201": 505,
        "iz": 506,
        "are": 507,
        "ight": 508,
        "),": 509,
        "ish": 510,
        "Ġfirst": 511,
        "ere": 512,
        "ĠCh": 513,
        "ass": 514,
        "ord": 515,
        "ions": 516,
        "ect": 517,
        "ĠUn": 518,
        "ave": 519,
        "any": 520,
        "ide": 521,
        "ust": 522,
        "Ġwhe": 523,
        "ates": 524,
        "ome": 525,
        "ount": 526,
        "per": 527,
        "ous": 528,
        "ult": 529,
        "ry": 530,
        "cc": 531,
        "out": 532,
        "Ġab": 533,
        "Ġsh": 534,
        "Ġcont": 535,
        "Ġwere": 536,
        "Ġint": 537,
        "Ġun": 538,
        "ue": 539,
        "Ġits": 540,
        "ks": 541,
        "fer": 542,
        "pp": 543,
        "âĢĵ": 544,
        "Ġalso": 545,
        "ence": 546,
        "rit": 547,
        "ĠV": 548,
        "own": 549,
        "ff": 550,
        "Ġres": 551,
        "ie": 552,
        "ĠHe": 553,
        "Ġr": 554,
        "Âł": 555,
        "Ġcl": 556,
        "ach": 557,
        "ally": 558,
        "clud": 559,
        "ign": 560,
        "ater": 561,
        "Ġar": 562,
        "lect": 563,
        "Ġhave": 564,
        "con": 565,
        "ations": 566,
        "Ġad": 567,
        "ime": 568,
        "Ġone": 569,
        "Ġro": 570,
        "ph": 571,
        "Ġen": 572,
        "Ġnot": 573,
        "ited": 574,
        "Ġyear": 575,
        "Ġsp": 576,
        "act": 577,
        "ang": 578,
        "Ġtheir": 579,
        "The": 580,
        "Ġtra": 581,
        "ory": 582,
        "Ġser": 583,
        "Ġinclud": 584,
        "Ġplay": 585,
        "ack": 586,
        "ition": 587,
        "vel": 588,
        "ound": 589,
        "ational": 590,
        "Ġcan": 591,
        "Ġ200": 592,
        "Ġper": 593,
        "orm": 594,
        "low": 595,
        "Ġpart": 596,
        "ĠWh": 597,
        "Ġ3": 598,
        "Ġmost": 599,
        "ree": 600,
        "Ġtw": 601,
        "Ġbec": 602,
        "fter": 603,
        "ep": 604,
        "Ġ18": 605,
        "ased": 606,
        "amp": 607,
        "Ġother": 608,
        "ely": 609,
        "Ġthis": 610,
        "Ġrec": 611,
        "land": 612,
        "meric": 613,
        "ice": 614,
        ").": 615,
        "ok": 616,
        "hed": 617,
        "Ġra": 618,
        "orn": 619,
        "Ġcomm": 620,
        "ĠTh": 621,
        "Ġdis": 622,
        "ile": 623,
        "xt": 624,
        "ced": 625,
        "Ġwho": 626,
        "ens": 627,
        "ib": 628,
        "erm": 629,
        "ey": 630,
        "les": 631,
        "ark": 632,
        "ĠAmeric": 633,
        "Ġsc": 634,
        "Ġkn": 635,
        "Ġim": 636,
        "ik": 637,
        "Ġj": 638,
        "we": 639,
        "20": 640,
        "ĠInd": 641,
        "ĠAl": 642,
        "ern": 643,
        "Ġbut": 644,
        "Ġme": 645,
        "Ġbeen": 646,
        "Ġsuch": 647,
        "uring": 648,
        "over": 649,
        "Ġover": 650,
        "ob": 651,
        "ace": 652,
        "Ġtwo": 653,
        "ugh": 654,
        "Ġne": 655,
        "Ġhad": 656,
        "int": 657,
        "Ġsy": 658,
        "ood": 659,
        "ase": 660,
        "res": 661,
        "ors": 662,
        "vent": 663,
        "ĠY": 664,
        "aw": 665,
        "Ġall": 666,
        "Ġdes": 667,
        "ng": 668,
        "Ġspe": 669,
        "ubl": 670,
        "ces": 671,
        "Ġabout": 672,
        "19": 673,
        "arge": 674,
        "ĠUnited": 675,
        "able": 676,
        "Ġform": 677,
        "ance": 678,
        "old": 679,
        "ied": 680,
        "ĠSe": 681,
        "Ġ199": 682,
        "form": 683,
        "Ġprodu": 684,
        "ward": 685,
        "Ġworld": 686,
        "ivers": 687,
        "Ġag": 688,
        "illion": 689,
        "Ġthey": 690,
        "Ġused": 691,
        "ific": 692,
        "ember": 693,
        "ould": 694,
        "Ġelect": 695,
        "ning": 696,
        "one": 697,
        "Ġafter": 698,
        "Ġcons": 699,
        "gan": 700,
        "Ġpop": 701,
        "als": 702,
        "Ġknown": 703,
        "ons": 704,
        "ics": 705,
        "Ġmore": 706,
        "Ġcent": 707,
        "Ġreg": 708,
        "Ġgro": 709,
        "Ġwhen": 710,
        "ident": 711,
        "Ġinto": 712,
        "te": 713,
        "Ġtime": 714,
        "ite": 715,
        "Ġear": 716,
        "ind": 717,
        "tern": 718,
        "ild": 719,
        "red": 720,
        "Ġmod": 721,
        "Ġ4": 722,
        "olog": 723,
        "port": 724,
        "Ġco": 725,
        "ating": 726,
        "stem": 727,
        "ade": 728,
        "Ġbet": 729,
        "ĠMar": 730,
        "ular": 731,
        "hip": 732,
        "ft": 733,
        "ener": 734,
        "ck": 735,
        "ose": 736,
        "rib": 737,
        "ĠAmerican": 738,
        "Ġcount": 739,
        "Ġatt": 740,
        "Ġwe": 741,
        "ved": 742,
        "oy": 743,
        "Ġpo": 744,
        "ail": 745,
        "Ġout": 746,
        "ĠStates": 747,
        "rough": 748,
        "wn": 749,
        "ween": 750,
        "Ġ198": 751,
        "Ġcol": 752,
        "ans": 753,
        "Ġthem": 754,
        "ature": 755,
        "Ġmany": 756,
        "ames": 757,
        "Ġoff": 758,
        "Ġlarge": 759,
        "ress": 760,
        "ĠAr": 761,
        "Ġ5": 762,
        "aus": 763,
        "Ġpe": 764,
        "ract": 765,
        "iven": 766,
        "ath": 767,
        "ict": 768,
        "ron": 769,
        "ough": 770,
        "Ġyears": 771,
        "Ġteam": 772,
        "Ġ202": 773,
        "Ġinc": 774,
        "cial": 775,
        "ve": 776,
        "Ġqu": 777,
        "velop": 778,
        "ents": 779,
        "raph": 780,
        "ren": 781,
        "ug": 782,
        "urn": 783,
        "ool": 784,
        "Ġbetween": 785,
        "Ġher": 786,
        "outh": 787,
        "io": 788,
        "Ġup": 789,
        "ins": 790,
        "ious": 791,
        "iss": 792,
        "ities": 793,
        "let": 794,
        "Ġwork": 795,
        "Ġfin": 796,
        "Ġloc": 797,
        "Ġfound": 798,
        "Ġthan": 799,
        "ick": 800,
        "ten": 801,
        "Ġwhere": 802,
        "Ġact": 803,
        "Ġpar": 804,
        "ered": 805,
        "ĠWor": 806,
        "ilm": 807,
        "aj": 808,
        "rans": 809,
        "ral": 810,
        "ake": 811,
        "Ġsystem": 812,
        "ince": 813,
        "ven": 814,
        "hes": 815,
        "Ġsub": 816,
        "eld": 817,
        "oth": 818,
        "Ġduring": 819,
        "ĠDe": 820,
        "Ġph": 821,
        "ollow": 822,
        "Ġund": 823,
        "ural": 824,
        "Ġpr": 825,
        "ĠWhat": 826,
        "cond": 827,
        "Ġap": 828,
        "ines": 829,
        "ĠLe": 830,
        "ĠNew": 831,
        "Ġnum": 832,
        "ne": 833,
        "Ġdevelop": 834,
        "ĠRe": 835,
        "Ġsome": 836,
        "Ġdef": 837,
        "Ġpubl": 838,
        "ason": 839,
        "ata": 840,
        "Ġpres": 841,
        "ism": 842,
        "Ġcre": 843,
        "orth": 844,
        "Ġman": 845,
        "Ġso": 846,
        "iet": 847,
        "ars": 848,
        "cess": 849,
        "ished": 850,
        "Ġ197": 851,
        "Ġam": 852,
        "Ġrel": 853,
        "ĠAs": 854,
        "ject": 855,
        "Ġthrough": 856,
        "ings": 857,
        "000": 858,
        "ower": 859,
        "att": 860,
        "ĠWorld": 861,
        "ily": 862,
        "man": 863,
        "ury": 864,
        "Ġonly": 865,
        "Ġfe": 866,
        "Ġ196": 867,
        "Ġ6": 868,
        "Ġpol": 869,
        "pen": 870,
        "its": 871,
        "Ġacc": 872,
        "ined": 873,
        "ual": 874,
        "Ġunder": 875,
        "ond": 876,
        "tain": 877,
        "ative": 878,
        "Ġtrans": 879,
        "Ġass": 880,
        "Ġcall": 881,
        "chool": 882,
        "oh": 883,
        "ys": 884,
        "Ġnew": 885,
        "Ġprov": 886,
        "ram": 887,
        "ays": 888,
        "Ġfl": 889,
        "Ġvar": 890,
        "ise": 891,
        "Ġcap": 892,
        "Ġind": 893,
        "ix": 894,
        "Ġmillion": 895,
        "Ġapp": 896,
        "Ġac": 897,
        "Ġrecord": 898,
        "ople": 899,
        "ball": 900,
        "Ġart": 901,
        "ized": 902,
        "Ġgener": 903,
        "Ġend": 904,
        "Ġru": 905,
        "Ġbecame": 906,
        "Ġinv": 907,
        "uro": 908,
        "Ġfollow": 909,
        "Ġfour": 910,
        "Ġmade": 911,
        "Ġsecond": 912,
        "Ġdo": 913,
        "round": 914,
        "Ġtext": 915,
        "Ġpass": 916,
        "ient": 917,
        "Ġwhat": 918,
        "ĠSh": 919,
        "Ġwell": 920,
        "Ġdif": 921,
        "hen": 922,
        "Ġbl": 923,
        "Ġincluding": 924,
        "angu": 925,
        "ically": 926,
        "ield": 927,
        "Ġmain": 928,
        "ĠThis": 929,
        "ock": 930,
        "Ġmet": 931,
        "ĠEng": 932,
        "uc": 933,
        "reat": 934,
        "dition": 935,
        "Ġfilm": 936,
        "Ġthree": 937,
        "ork": 938,
        "Ġbu": 939,
        "Ġbo": 940,
        "ĠCom": 941,
        "Ġhist": 942,
        "Ġsing": 943,
        "oun": 944,
        "ĠSp": 945,
        "Ġmov": 946,
        "Ġrefer": 947,
        "ah": 948,
        "Ġwon": 949,
        "Ġgame": 950,
        "iversity": 951,
        "Ġdist": 952,
        "Ġrele": 953,
        "led": 954,
        "Ġob": 955,
        "fore": 956,
        "Ġbeing": 957,
        "igin": 958,
        "ution": 959,
        "Ġset": 960,
        "Ġext": 961,
        "Ġmus": 962,
        "Ġret": 963,
        "Ġcalled": 964,
        "Ġem": 965,
        "arg": 966,
        "Ġuse": 967,
        "ton": 968,
        "ĠâĢĵ": 969,
        "ike": 970,
        "Ġlangu": 971,
        "Ġ-": 972,
        "Ġdec": 973,
        "Ġinter": 974,
        "Ġmay": 975,
        "cy": 976,
        "ash": 977,
        "Ġwin": 978,
        "ĠFran": 979,
        "iver": 980,
        "enn": 981,
        "Ġty": 982,
        "Ġwould": 983,
        "Ġcur": 984,
        "ĠAn": 985,
        "Ġsur": 986,
        "Ġrem": 987,
        "Ġmodel": 988,
        "Ġlist": 989,
        "ision": 990,
        "Ġstud": 991,
        "ife": 992,
        "Ġlater": 993,
        "ments": 994,
        "Ġshe": 995,
        "ajor": 996,
        "Ġfam": 997,
        "Ġpeople": 998,
        "erson": 999,
        "Ġseason": 1000,
        "Ġhigh": 1001,
        "ually": 1002,
        "Ġname": 1003,
        "Ġevent": 1004,
        "Ġlead": 1005,
        "Ġent": 1006,
        "Ġnumber": 1007,
        "oot": 1008,
        "\",": 1009,
        "ĠWar": 1010,
        "ĠEuro": 1011,
        "Ġthen": 1012,
        "Ġexp": 1013,
        "ries": 1014,
        "Ġhim": 1015,
        "Ġran": 1016,
        "amed": 1017,
        "ax": 1018,
        "Ġwhile": 1019,
        "\".": 1020,
        "Ġseries": 1021,
        "Ġ17": 1022,
        "Ġearly": 1023,
        "overn": 1024,
        "fl": 1025,
        "ium": 1026,
        "Ġsign": 1027,
        "ause": 1028,
        "ts": 1029,
        "Ġdata": 1030,
        "Ġspec": 1031,
        "Ġeff": 1032,
        "Ġthere": 1033,
        "Ġest": 1034,
        "Ġagain": 1035,
        "chn": 1036,
        "pr": 1037,
        "ived": 1038,
        "ĠCon": 1039,
        "Ġmon": 1040,
        "Ġstate": 1041,
        "rent": 1042,
        "ina": 1043,
        "ier": 1044,
        "Ġcompany": 1045,
        "rol": 1046,
        "gy": 1047,
        "Ġserv": 1048,
        "very": 1049,
        "Ã©": 1050,
        "Ġ195": 1051,
        "Ġsim": 1052,
        "ather": 1053,
        "Ġcity": 1054,
        "ulation": 1055,
        "Ġmat": 1056,
        "Ġorigin": 1057,
        "ology": 1058,
        "az": 1059,
        "Ġdire": 1060,
        "ever": 1061,
        "Ġprocess": 1062,
        "Ġdiffer": 1063,
        "ility": 1064,
        "ional": 1065,
        "imes": 1066,
        "ĠEurope": 1067,
        "Ġimp": 1068,
        "Ġcommon": 1069,
        "ĠHow": 1070,
        "Ġinclude": 1071,
        "Ġmajor": 1072,
        "Ġgra": 1073,
        "ĠIs": 1074,
        "ided": 1075,
        "Ġ9": 1076,
        "Ġeach": 1077,
        "Ġsm": 1078,
        "ired": 1079,
        "ining": 1080,
        "ists": 1081,
        "Ġ194": 1082,
        "Ġ8": 1083,
        "bo": 1084,
        "Ġwrit": 1085,
        "ague": 1086,
        "mp": 1087,
        "Ġsince": 1088,
        "ampions": 1089,
        "emb": 1090,
        "ober": 1091,
        "ĠIndia": 1092,
        "Ġrep": 1093,
        "ĠAt": 1094,
        "Ġdesign": 1095,
        "ex": 1096,
        "ĠCol": 1097,
        "ful": 1098,
        "Ġcentury": 1099,
        "ĠGiven": 1100,
        "Ġarea": 1101,
        "Ġbased": 1102,
        "Ġboth": 1103,
        "ank": 1104,
        "Ġoften": 1105,
        "ĠZ": 1106,
        "air": 1107,
        "ĠPro": 1108,
        "ital": 1109,
        "ĠWest": 1110,
        "lish": 1111,
        "Ġrece": 1112,
        "ĠUniversity": 1113,
        "Ġlanguage": 1114,
        "Ġ7": 1115,
        "ible": 1116,
        "Ġgroup": 1117,
        "conom": 1118,
        "ee": 1119,
        "Ġhow": 1120,
        "ures": 1121,
        "Ġany": 1122,
        "Ġ10": 1123,
        "ĠCl": 1124,
        "Ġaut": 1125,
        "uch": 1126,
        "Ġmed": 1127,
        "ĠSc": 1128,
        "Ġbefore": 1129,
        "ants": 1130,
        "Ġsever": 1131,
        "ised": 1132,
        "aking": 1133,
        "ird": 1134,
        "Ġlargest": 1135,
        "ner": 1136,
        "Ġmil": 1137,
        "Ġmark": 1138,
        "Ġhum": 1139,
        "stit": 1140,
        "omet": 1141,
        "til": 1142,
        "ted": 1143,
        "ai": 1144,
        "bum": 1145,
        "Ġstart": 1146,
        "rand": 1147,
        "ble": 1148,
        "ĠSw": 1149,
        "Ġpoint": 1150,
        "Ġpower": 1151,
        "agraph": 1152,
        "hest": 1153,
        "ĠShe": 1154,
        "ĠAd": 1155,
        "Ġdisc": 1156,
        "Ġchar": 1157,
        "Ġresult": 1158,
        "Ġthese": 1159,
        "Ġown": 1160,
        "Ġparagraph": 1161,
        "ĠNational": 1162,
        "ĠJoh": 1163,
        "ĠGerm": 1164,
        "Ġsupp": 1165,
        "Ġplayed": 1166,
        "oci": 1167,
        "eg": 1168,
        "ccess": 1169,
        "cept": 1170,
        "Ġ16": 1171,
        "Ġoper": 1172,
        "ets": 1173,
        "Ġterm": 1174,
        "Ġdid": 1175,
        "ĠCan": 1176,
        "Ġoffic": 1177,
        "ouse": 1178,
        "Ġuntil": 1179,
        "ĠAf": 1180,
        "eb": 1181,
        "rop": 1182,
        "ĠPl": 1183,
        "Ġtechn": 1184,
        "ĠIndian": 1185,
        "Ġlong": 1186,
        "other": 1187,
        "Ġcountry": 1188,
        "ternational": 1189,
        "ĠBrit": 1190,
        "Ġ15": 1191,
        "Ġdesc": 1192,
        "Ġbel": 1193,
        "ty": 1194,
        "une": 1195,
        "Ġrun": 1196,
        "ĠAust": 1197,
        "ec": 1198,
        "Ġgovern": 1199,
        "18": 1200,
        "Ġcar": 1201,
        "Ġdirect": 1202,
        "Ġgre": 1203,
        "Ġno": 1204,
        "Ġpartic": 1205,
        "Ġperform": 1206,
        "Ġsol": 1207,
        "ĠSouth": 1208,
        "Ġprom": 1209,
        "der": 1210,
        "Ġorgan": 1211,
        "Ġaround": 1212,
        "ting": 1213,
        "Ġocc": 1214,
        "Ġalbum": 1215,
        "Ġgu": 1216,
        "orp": 1217,
        "Ġelectric": 1218,
        "Ġnamed": 1219,
        "ĠPh": 1220,
        "Ġincre": 1221,
        "Ġbro": 1222,
        "Ġele": 1223,
        "ley": 1224,
        "Ġpublic": 1225,
        "Ġprog": 1226,
        "ĠThey": 1227,
        "Ġwater": 1228,
        "ross": 1229,
        "Ġcompet": 1230,
        "Ġbre": 1231,
        "eder": 1232,
        "uss": 1233,
        "ĠFor": 1234,
        "Ġwill": 1235,
        "pect": 1236,
        "Ġgo": 1237,
        "rid": 1238,
        "ues": 1239,
        "Ġcare": 1240,
        "ĠNorth": 1241,
        "ĠJohn": 1242,
        "ene": 1243,
        "iam": 1244,
        "Ġschool": 1245,
        "ull": 1246,
        "Ġlaw": 1247,
        "Ġcharact": 1248,
        "Ġcontin": 1249,
        "ĠUS": 1250,
        "Ġdifferent": 1251,
        "inc": 1252,
        "Ġval": 1253,
        "Ġseveral": 1254,
        "Ġhistory": 1255,
        "way": 1256,
        "inist": 1257,
        "Ġbegan": 1258,
        "the": 1259,
        "ared": 1260,
        "Ġtyp": 1261,
        "Ġpopular": 1262,
        "ages": 1263,
        "ale": 1264,
        "Ġeng": 1265,
        "Ġann": 1266,
        "Ġback": 1267,
        "Ġ193": 1268,
        "eng": 1269,
        "Ġmult": 1270,
        "Ġsuccess": 1271,
        "Ġcurrent": 1272,
        "Ġwar": 1273,
        "Ġeconom": 1274,
        "Ġgl": 1275,
        "Ġ$": 1276,
        "ampionship": 1277,
        "ctions": 1278,
        "Ġreleased": 1279,
        "ĠKing": 1280,
        "Ġborn": 1281,
        "Ġagainst": 1282,
        "Ġappe": 1283,
        "ices": 1284,
        "osed": 1285,
        "ËĪ": 1286,
        "Ġmusic": 1287,
        "Ġsame": 1288,
        "iod": 1289,
        "Ġconsid": 1290,
        "wards": 1291,
        "Ġhig": 1292,
        "apan": 1293,
        "Ġpolit": 1294,
        "atic": 1295,
        "ket": 1296,
        "Ġtit": 1297,
        "Ġed": 1298,
        "to": 1299,
        "elf": 1300,
        "ience": 1301,
        "iew": 1302,
        "ris": 1303,
        "co": 1304,
        "Ġprof": 1305,
        "ĠAfric": 1306,
        "son": 1307,
        "ink": 1308,
        "ified": 1309,
        "Ġche": 1310,
        "ann": 1311,
        "Ġpopulation": 1312,
        "Ġeffect": 1313,
        "ute": 1314,
        "ll": 1315,
        "Ġdep": 1316,
        "Ġfollowing": 1317,
        "Ġsmall": 1318,
        "ootball": 1319,
        "Ġfield": 1320,
        "Ġcontrol": 1321,
        "atural": 1322,
        "ĠAll": 1323,
        "ĠBl": 1324,
        "ization": 1325,
        "Ġpresident": 1326,
        "ively": 1327,
        "Ġperson": 1328,
        "Ġcult": 1329,
        "ugust": 1330,
        "ried": 1331,
        "ware": 1332,
        "Ġ12": 1333,
        "af": 1334,
        "ights": 1335,
        "ended": 1336,
        "cer": 1337,
        "pril": 1338,
        "Ġappro": 1339,
        "Ġusing": 1340,
        "ĠCar": 1341,
        "par": 1342,
        "gest": 1343,
        "Ġfive": 1344,
        "Ġnet": 1345,
        "ives": 1346,
        "ains": 1347,
        "Ġled": 1348,
        "iqu": 1349,
        "ases": 1350,
        "Ġ2022": 1351,
        "ize": 1352,
        "ĠEast": 1353,
        "Ġsoc": 1354,
        "Ġclass": 1355,
        "iving": 1356,
        "Ġexpl": 1357,
        "Ġbest": 1358,
        "ĠQ": 1359,
        "ĠBe": 1360,
        "Ġsk": 1361,
        "Ġsingle": 1362,
        "ĠMay": 1363,
        "200": 1364,
        "ĠJapan": 1365,
        "Ġlo": 1366,
        "ement": 1367,
        ".\"": 1368,
        "Ġtop": 1369,
        "Ġcountries": 1370,
        "Ġlife": 1371,
        "au": 1372,
        "Ġsum": 1373,
        "Ġopen": 1374,
        "ĠEnglish": 1375,
        "ĠMus": 1376,
        "ately": 1377,
        "agn": 1378,
        "ales": 1379,
        "ĠApril": 1380,
        "ling": 1381,
        "ptember": 1382,
        "10": 1383,
        "ring": 1384,
        "oman": 1385,
        "gen": 1386,
        "Ġfeature": 1387,
        "ĠJan": 1388,
        "Ġformer": 1389,
        "Ġbecause": 1390,
        "Ġrequ": 1391,
        "ĠMarch": 1392,
        "ality": 1393,
        "Ġhead": 1394,
        "Ġpassage": 1395,
        "sc": 1396,
        "Ġav": 1397,
        "Ġmember": 1398,
        "ĠNov": 1399,
        "Ġfamily": 1400,
        "Ġnear": 1401,
        "sh": 1402,
        "Ġnational": 1403,
        "Ġ14": 1404,
        "ĠGe": 1405,
        "Ġchild": 1406,
        "alth": 1407,
        "itions": 1408,
        "ored": 1409,
        "Ġperiod": 1410,
        "Ġcomput": 1411,
        "Ġdr": 1412,
        "ĠHis": 1413,
        "Ġmin": 1414,
        "ĠAfter": 1415,
        "Ġadv": 1416,
        "ially": 1417,
        "Ġair": 1418,
        "ĠAm": 1419,
        "ĠFrom": 1420,
        "Ġbuild": 1421,
        "ĠBritish": 1422,
        "omin": 1423,
        "ĠAugust": 1424,
        "ms": 1425,
        "iness": 1426,
        "Ġlast": 1427,
        "Ġlocated": 1428,
        "ctober": 1429,
        "Ġdue": 1430,
        "born": 1431,
        "Ġcommun": 1432,
        "Ġinfl": 1433,
        "Ġindu": 1434,
        "Ġequ": 1435,
        "ĠLeague": 1436,
        "Ġdet": 1437,
        "Ġ2020": 1438,
        "rodu": 1439,
        "ploy": 1440,
        "ĠCal": 1441,
        "Ġpur": 1442,
        "de": 1443,
        "ivil": 1444,
        "iter": 1445,
        "Ġ13": 1446,
        "uly": 1447,
        "Ġsupport": 1448,
        "cem": 1449,
        "rench": 1450,
        "Ġpos": 1451,
        "vol": 1452,
        "Ġhome": 1453,
        "Ġhuman": 1454,
        "Ġbus": 1455,
        "ĠAustral": 1456,
        "Ġstand": 1457,
        "ves": 1458,
        "âĢĶ": 1459,
        "Ġland": 1460,
        "Ġkm": 1461,
        "Ġdescrib": 1462,
        "lands": 1463,
        "Ġold": 1464,
        "iety": 1465,
        "aid": 1466,
        "Ġallow": 1467,
        "ĠHar": 1468,
        "Ġprogram": 1469,
        "Ġref": 1470,
        "ering": 1471,
        "Ġstre": 1472,
        "Ġalong": 1473,
        "Ġ2021": 1474,
        "Ġneed": 1475,
        "Ġgames": 1476,
        "Ġthird": 1477,
        "by": 1478,
        "Ġproduct": 1479,
        "Ġestab": 1480,
        "Ġprofess": 1481,
        "cember": 1482,
        "Ġwithin": 1483,
        "aving": 1484,
        "Ġjo": 1485,
        "com": 1486,
        "ats": 1487,
        "ĠSeptember": 1488,
        "ĠOctober": 1489,
        "ĠCent": 1490,
        "though": 1491,
        "Ġshow": 1492,
        "here": 1493,
        "Ġsong": 1494,
        "ĠOn": 1495,
        "tal": 1496,
        "Ġcareer": 1497,
        "ness": 1498,
        "cing": 1499,
        "Ġtas": 1500,
        "gin": 1501,
        "side": 1502,
        "Ġyou": 1503,
        "uary": 1504,
        "ĠAmerica": 1505,
        "Ġbas": 1506,
        "Ġmarket": 1507,
        "ody": 1508,
        "attle": 1509,
        "Ġplayer": 1510,
        "ani": 1511,
        "ublic": 1512,
        "ple": 1513,
        "ament": 1514,
        "work": 1515,
        "Ġwid": 1516,
        "ĠJune": 1517,
        "Ġgiven": 1518,
        "Ġreference": 1519,
        "Ġage": 1520,
        "ĠMan": 1521,
        "ĠII": 1522,
        "ove": 1523,
        "ording": 1524,
        "Ġfinal": 1525,
        "yd": 1526,
        "ĠComm": 1527,
        "ese": 1528,
        "cent": 1529,
        "omen": 1530,
        "Ġcharacter": 1531,
        "Ġgovernment": 1532,
        "Ġword": 1533,
        "ane": 1534,
        "Ġarch": 1535,
        "ilt": 1536,
        "ĠPar": 1537,
        "ches": 1538,
        "Ġbillion": 1539,
        "Ġresp": 1540,
        "Ġener": 1541,
        "ĠYork": 1542,
        "Ġlear": 1543,
        "ĠNovember": 1544,
        "ration": 1545,
        "ĠDecember": 1546,
        "Ġappl": 1547,
        "Ġheld": 1548,
        "Ġengine": 1549,
        "ange": 1550,
        "els": 1551,
        "Ġhel": 1552,
        "Ġtraining": 1553,
        "vers": 1554,
        "ger": 1555,
        "ke": 1556,
        "ogn": 1557,
        "Ġopp": 1558,
        "ĠGu": 1559,
        "ently": 1560,
        "orpor": 1561,
        "ek": 1562,
        "ĠCanad": 1563,
        "Ġlate": 1564,
        "formation": 1565,
        "Ġmar": 1566,
        "ĠJuly": 1567,
        "Ġnon": 1568,
        "ories": 1569,
        "lo": 1570,
        "ged": 1571,
        "ograph": 1572,
        "Ġserved": 1573,
        "ĠHowever": 1574,
        "Ġnatural": 1575,
        "ival": 1576,
        "ĠEar": 1577,
        "hor": 1578,
        "resent": 1579,
        "ditional": 1580,
        "Ġsec": 1581,
        "ued": 1582,
        "Ġmemb": 1583,
        "Ġvide": 1584,
        "my": 1585,
        "Ġsport": 1586,
        "ĠAnd": 1587,
        "ze": 1588,
        "Ġlevel": 1589,
        "Ġla": 1590,
        "ample": 1591,
        "Ġfun": 1592,
        "lege": 1593,
        "Ġdeveloped": 1594,
        "ĠJanuary": 1595,
        "Ġplace": 1596,
        "Ġvis": 1597,
        "Ġcreated": 1598,
        "sp": 1599,
        "17": 1600,
        "Ġimport": 1601,
        "aly": 1602,
        "rem": 1603,
        "Ġband": 1604,
        "ences": 1605,
        "Ġadd": 1606,
        "ĠThere": 1607,
        "read": 1608,
        "ĠSup": 1609,
        "Ġ100": 1610,
        "ĠMc": 1611,
        "ĠRep": 1612,
        "akes": 1613,
        "Ġshort": 1614,
        "lex": 1615,
        "epend": 1616,
        "ĠOr": 1617,
        "Ġphys": 1618,
        "ĠSchool": 1619,
        "Ġsour": 1620,
        "tt": 1621,
        "Ġinflu": 1622,
        "ribut": 1623,
        "Ġconsidered": 1624,
        "12": 1625,
        "Ġtele": 1626,
        "Ġnorth": 1627,
        "put": 1628,
        "Ġoccur": 1629,
        "ĠCup": 1630,
        "Ġregion": 1631,
        "Ġleg": 1632,
        "Ġprim": 1633,
        "Ġpublished": 1634,
        "Ġlike": 1635,
        "ony": 1636,
        "Ġday": 1637,
        "Ġsepar": 1638,
        "earch": 1639,
        "Ġfootball": 1640,
        "rict": 1641,
        "ĠFrench": 1642,
        "Ġter": 1643,
        "15": 1644,
        "ebru": 1645,
        "ebruary": 1646,
        "aced": 1647,
        "Ġif": 1648,
        "Ġsix": 1649,
        "Ġcrit": 1650,
        "Ġmembers": 1651,
        "Ġtem": 1652,
        "dom": 1653,
        "Ġenergy": 1654,
        "ĠWho": 1655,
        "Ġteams": 1656,
        "ĠExt": 1657,
        "ission": 1658,
        "ards": 1659,
        "ior": 1660,
        "ify": 1661,
        "Ġlight": 1662,
        "ĠCo": 1663,
        "Ġfru": 1664,
        "ĠAfrica": 1665,
        "Ġexper": 1666,
        "aim": 1667,
        "rist": 1668,
        "ĠX": 1669,
        "itary": 1670,
        "Ġstates": 1671,
        "ĠGeor": 1672,
        "ĠEd": 1673,
        "ĠAss": 1674,
        "Ġreceived": 1675,
        "Ġdevelopment": 1676,
        "Ġproduced": 1677,
        "idd": 1678,
        "Ġstr": 1679,
        "ones": 1680,
        "Ġamong": 1681,
        "Ġdown": 1682,
        "Ġsouth": 1683,
        "ĠThese": 1684,
        "of": 1685,
        "ption": 1686,
        "Ġbusiness": 1687,
        "ples": 1688,
        "Ġcer": 1689,
        "Ġhighest": 1690,
        "ney": 1691,
        "ĠPr": 1692,
        "Ġclub": 1693,
        "ained": 1694,
        "Ġcould": 1695,
        "ator": 1696,
        "aster": 1697,
        "ĠRo": 1698,
        "la": 1699,
        "day": 1700,
        "ential": 1701,
        "Ġindust": 1702,
        "Ġdoes": 1703,
        "Ġ2018": 1704,
        "itive": 1705,
        "Ġ2019": 1706,
        "ĠSer": 1707,
        "Ġmi": 1708,
        "Ġfounded": 1709,
        "Ġstru": 1710,
        "Ġmust": 1711,
        "ured": 1712,
        "Ġintrodu": 1713,
        "for": 1714,
        "Ġvarious": 1715,
        "Ġhand": 1716,
        "Ġbecome": 1717,
        "Ġinvol": 1718,
        "lished": 1719,
        "ĠCount": 1720,
        "ott": 1721,
        "Ġinst": 1722,
        "Ġtotal": 1723,
        "Ġ11": 1724,
        "ĠHer": 1725,
        "ilar": 1726,
        "Ġtell": 1727,
        "irc": 1728,
        "ĠCity": 1729,
        "Ġdiv": 1730,
        "ĠEx": 1731,
        "Ġeast": 1732,
        "Ġexample": 1733,
        "med": 1734,
        "ĠFebruary": 1735,
        "Ġusually": 1736,
        "ode": 1737,
        "Ġtimes": 1738,
        "Ġcomb": 1739,
        "Ġassoci": 1740,
        "ĠBo": 1741,
        "ÉĻ": 1742,
        "Ġreport": 1743,
        "Ġprovided": 1744,
        "Ġfact": 1745,
        "ĠWhen": 1746,
        "Ġgrow": 1747,
        "raft": 1748,
        "Ġrest": 1749,
        "Ġreturn": 1750,
        "itar": 1751,
        "ĠTe": 1752,
        "iforn": 1753,
        "Ġaward": 1754,
        "Ġmodern": 1755,
        "atter": 1756,
        "Ġsystems": 1757,
        "Ġdel": 1758,
        "vious": 1759,
        "Ġdem": 1760,
        "ĠBar": 1761,
        "Ġinvest": 1762,
        "Ġrad": 1763,
        "Ġhelp": 1764,
        "ĠSan": 1765,
        "Ġdeb": 1766,
        "11": 1767,
        "hem": 1768,
        "Ġkey": 1769,
        "ination": 1770,
        "Ġsw": 1771,
        "ĠFrance": 1772,
        "ifornia": 1773,
        "ĠYou": 1774,
        "ape": 1775,
        "ians": 1776,
        "Ġlow": 1777,
        "ĠChina": 1778,
        "arm": 1779,
        "Ġcaus": 1780,
        "Ġprot": 1781,
        "ief": 1782,
        "Ġ192": 1783,
        "yl": 1784,
        "ĠExtract": 1785,
        "ched": 1786,
        "Ġcapital": 1787,
        "Ġinformation": 1788,
        "yn": 1789,
        "Ġrecogn": 1790,
        "obal": 1791,
        "Ġcour": 1792,
        "Ġdev": 1793,
        "Ġobject": 1794,
        "ention": 1795,
        "ĠCalifornia": 1796,
        "Ġsignific": 1797,
        "Ġwest": 1798,
        "adem": 1799,
        "Ġposs": 1800,
        "acks": 1801,
        "Ġes": 1802,
        "ctor": 1803,
        "thern": 1804,
        "ounced": 1805,
        "ither": 1806,
        "lear": 1807,
        "Ġtook": 1808,
        "serv": 1809,
        "row": 1810,
        "uel": 1811,
        "most": 1812,
        "Ġi": 1813,
        "alf": 1814,
        "Ġinit": 1815,
        "Ġdays": 1816,
        "Ġpolitical": 1817,
        "ivid": 1818,
        "ency": 1819,
        "Ġbuilt": 1820,
        "Ġvery": 1821,
        "amb": 1822,
        "Ġmonth": 1823,
        "ĠEuropean": 1824,
        "Ġmuch": 1825,
        "Ġthose": 1826,
        "Ġrepresent": 1827,
        "Ġestablished": 1828,
        "Ġspecial": 1829,
        "iron": 1830,
        "ĠGree": 1831,
        "Ġident": 1832,
        "Ġsomet": 1833,
        "hod": 1834,
        "Ġcamp": 1835,
        "Ġelectr": 1836,
        "ĠMon": 1837,
        "Ġpract": 1838,
        "ĠPark": 1839,
        "Ġmilitary": 1840,
        "ense": 1841,
        "Ġoriginal": 1842,
        "ondon": 1843,
        "Ġvideo": 1844,
        "Ġmake": 1845,
        "50": 1846,
        "ean": 1847,
        "Ġreal": 1848,
        "Ġmen": 1849,
        "ĠEl": 1850,
        "Ġnow": 1851,
        "Ġevery": 1852,
        "Ġbeh": 1853,
        "Ġimportant": 1854,
        "Ġactiv": 1855,
        "Ġrace": 1856,
        "iple": 1857,
        "Ġtourn": 1858,
        "Ġ'": 1859,
        "Ġpresent": 1860,
        "tle": 1861,
        "Ġhistor": 1862,
        "Ġemploy": 1863,
        "ĠAward": 1864,
        "ler": 1865,
        "outhern": 1866,
        "Ġchang": 1867,
        "vision": 1868,
        "ĠEngland": 1869,
        "ĠLondon": 1870,
        "ote": 1871,
        "omb": 1872,
        "Ġcivil": 1873,
        "itect": 1874,
        "Ġchildren": 1875,
        "rab": 1876,
        "Ġ2017": 1877,
        "Ġproject": 1878,
        "Ġplayers": 1879,
        "ether": 1880,
        "Ġstat": 1881,
        "ama": 1882,
        "ĠWill": 1883,
        "iment": 1884,
        "Ġflow": 1885,
        "ilities": 1886,
        "oint": 1887,
        "ability": 1888,
        "ĠOne": 1889,
        "anish": 1890,
        "ges": 1891,
        "ret": 1892,
        "Ġparticular": 1893,
        "ĠFin": 1894,
        "Ġfood": 1895,
        "ington": 1896,
        "Ġinternational": 1897,
        "ides": 1898,
        "Ġspecies": 1899,
        "ĠEarth": 1900,
        "Ġsoft": 1901,
        "Ph": 1902,
        "Ġmach": 1903,
        "Ġ[": 1904,
        "Ġz": 1905,
        "alt": 1906,
        "ĠFeder": 1907,
        "Ġincluded": 1908,
        "abor": 1909,
        "inese": 1910,
        "line": 1911,
        "ensive": 1912,
        "ung": 1913,
        "Ġ30": 1914,
        "Ġ2009": 1915,
        "arch": 1916,
        "Ġsuper": 1917,
        "Ġmaking": 1918,
        "Ġgeneral": 1919,
        "ald": 1920,
        "ĠMo": 1921,
        "Ġ2010": 1922,
        "Ġside": 1923,
        "Ġsl": 1924,
        "Ġfre": 1925,
        "ĠTw": 1926,
        "ĠGermany": 1927,
        "ological": 1928,
        "Ġsimilar": 1929,
        "Ġrock": 1930,
        "Ġproduction": 1931,
        "chie": 1932,
        "Ġsocial": 1933,
        "Ġ2016": 1934,
        "play": 1935,
        "Ġclim": 1936,
        "Ġcompan": 1937,
        "Ġcomplet": 1938,
        "Ġmagn": 1939,
        "Ġ2015": 1940,
        "ĠBro": 1941,
        "ĠSun": 1942,
        "Ġ2011": 1943,
        "urity": 1944,
        "hern": 1945,
        "ĠBra": 1946,
        "ana": 1947,
        "ĠDav": 1948,
        "ends": 1949,
        "eter": 1950,
        "Ġdeath": 1951,
        "Ġprevious": 1952,
        "Ġredu": 1953,
        "ances": 1954,
        "Ġcommonly": 1955,
        "ĠGerman": 1956,
        "less": 1957,
        "ricket": 1958,
        "Ġball": 1959,
        "Ġcor": 1960,
        "16": 1961,
        "14": 1962,
        "ications": 1963,
        "ancial": 1964,
        "Ġsignificant": 1965,
        "Ġindivid": 1966,
        "Ġpost": 1967,
        "Ġhaving": 1968,
        "ef": 1969,
        "Ġproble": 1970,
        "Ġrank": 1971,
        "Ġsold": 1972,
        "Ġanother": 1973,
        "Ġvers": 1974,
        "Ġhold": 1975,
        "rat": 1976,
        "Ġorder": 1977,
        "ĠChampionship": 1978,
        "Ġmodels": 1979,
        "amples": 1980,
        "west": 1981,
        "Ġ&": 1982,
        "Ġattack": 1983,
        "ĠRuss": 1984,
        "Ġaver": 1985,
        "cted": 1986,
        "Ġdefe": 1987,
        "ma": 1988,
        "Ġaff": 1989,
        "Ġdescribed": 1990,
        "Ġlearning": 1991,
        "Ġreferred": 1992,
        "reen": 1993,
        "Ġpri": 1994,
        "Ġport": 1995,
        "Ġwritten": 1996,
        "ĠSing": 1997,
        "wide": 1998,
        "uf": 1999,
        "ams": 2000,
        "Ġpoints": 2001,
        "ocus": 2002,
        "Ġbody": 2003,
        "view": 2004,
        "Ġresearch": 2005,
        "13": 2006,
        "Ġgen": 2007,
        "volution": 2008,
        "Ġdied": 2009,
        "Ġfore": 2010,
        "Ġtest": 2011,
        "Ġappear": 2012,
        "orthern": 2013,
        "Ġproper": 2014,
        "Ġeven": 2015,
        "ending": 2016,
        "Ġbul": 2017,
        "Ġsent": 2018,
        "Ġofficial": 2019,
        "BA": 2020,
        "rap": 2021,
        "Ġthough": 2022,
        "199": 2023,
        "ĠKingdom": 2024,
        "Ġsty": 2025,
        "Ġinf": 2026,
        "Ġlocal": 2027,
        "Ġprofessional": 2028,
        "now": 2029,
        "Ġanim": 2030,
        "ĠRepublic": 2031,
        "SA": 2032,
        "Ġpat": 2033,
        "Ġmater": 2034,
        "Ġep": 2035,
        "Ġ190": 2036,
        "Ġ188": 2037,
        "Ġlim": 2038,
        "Ġconsist": 2039,
        "app": 2040,
        "istic": 2041,
        "ĠCounty": 2042,
        "Ġstill": 2043,
        "oll": 2044,
        "ison": 2045,
        "ĠSy": 2046,
        "arter": 2047,
        "Ġnetwork": 2048,
        "ĠNe": 2049,
        "Ġrole": 2050,
        "Ġearl": 2051,
        "Ġpress": 2052,
        "lymp": 2053,
        "Ġeither": 2054,
        "Ġarchitect": 2055,
        "ĠChrist": 2056,
        "Ġanal": 2057,
        "Ġcirc": 2058,
        "Ġstarted": 2059,
        "imately": 2060,
        "ĠAct": 2061,
        "Ġstruct": 2062,
        "Ġcy": 2063,
        "ĠChinese": 2064,
        "ĠOpen": 2065,
        "na": 2066,
        "Ġ2008": 2067,
        "iation": 2068,
        "Ġintroduced": 2069,
        "Ã¡": 2070,
        "Ġnext": 2071,
        "ades": 2072,
        "ĠInternational": 2073,
        "Ġcomputer": 2074,
        "30": 2075,
        "ift": 2076,
        "oms": 2077,
        "Ġ2012": 2078,
        "Ġlaun": 2079,
        "Ġexist": 2080,
        "Ġway": 2081,
        "ula": 2082,
        "Ġdiscover": 2083,
        "Ġmatch": 2084,
        "Ġsug": 2085,
        "ached": 2086,
        "ĠRiver": 2087,
        "Ġfew": 2088,
        "Ġacross": 2089,
        "Ġjust": 2090,
        "Ġmethod": 2091,
        "Ġtitle": 2092,
        "ille": 2093,
        "itation": 2094,
        "ĠSuper": 2095,
        "Ġevents": 2096,
        "ication": 2097,
        "ĠRoman": 2098,
        "Ġannounced": 2099,
        "Ġbuilding": 2100,
        "ĠPhil": 2101,
        "Ġachie": 2102,
        "icle": 2103,
        "Ġspace": 2104,
        "ĠMed": 2105,
        "era": 2106,
        "Ġline": 2107,
        "ument": 2108,
        "Ġdecl": 2109,
        "ots": 2110,
        "ires": 2111,
        "ows": 2112,
        "Ġfocus": 2113,
        "Ġservice": 2114,
        "Ġestim": 2115,
        "Ġguitar": 2116,
        "ĠWestern": 2117,
        "Ġleft": 2118,
        "ĠAsia": 2119,
        "Ġauthor": 2120,
        "Ġadm": 2121,
        "Ġ2014": 2122,
        "Ġfall": 2123,
        "Ġ2013": 2124,
        "rated": 2125,
        "Ġbi": 2126,
        "ccording": 2127,
        "Ġeconomic": 2128,
        "Ġmaterial": 2129,
        "Ġtechnology": 2130,
        "ĠGo": 2131,
        "ino": 2132,
        "amil": 2133,
        "Ġsqu": 2134,
        "ĠPol": 2135,
        "Ġvill": 2136,
        "ffic": 2137,
        "ĠAustralia": 2138,
        "Ġlarg": 2139,
        "Ġnov": 2140,
        "ĠCanada": 2141,
        "ps": 2142,
        "ĠOlymp": 2143,
        "Ġvol": 2144,
        "Ġglobal": 2145,
        "Ġmid": 2146,
        "Ġindepend": 2147,
        "ĠBC": 2148,
        "Ġterrit": 2149,
        "Ġcompanies": 2150,
        "Ġpain": 2151,
        "cle": 2152,
        "Ġconf": 2153,
        "Ġchampionship": 2154,
        "ËĲ": 2155,
        "Ġtour": 2156,
        "urch": 2157,
        "Ġmot": 2158,
        "Ġ22": 2159,
        "ĠWith": 2160,
        "lor": 2161,
        "Ġwithout": 2162,
        "ole": 2163,
        "Ġnames": 2164,
        "Ġtournament": 2165,
        "Ġfig": 2166,
        "ĠJames": 2167,
        "Ġbook": 2168,
        "Ġtasks": 2169,
        "Ġbecom": 2170,
        "sequ": 2171,
        "ĠState": 2172,
        "board": 2173,
        "ĠWilliam": 2174,
        "Ġ2007": 2175,
        "Ġwidely": 2176,
        "elling": 2177,
        "Ġsurf": 2178,
        "iddle": 2179,
        "asons": 2180,
        "ery": 2181,
        "Ġsuccessful": 2182,
        "aul": 2183,
        "mar": 2184,
        "Ġrange": 2185,
        "Ġ1990": 2186,
        "ĠBy": 2187,
        "rest": 2188,
        "ising": 2189,
        "ountain": 2190,
        "ĠPri": 2191,
        "Phone": 2192,
        "Ġhalf": 2193,
        "ray": 2194,
        "Ġscience": 2195,
        "etic": 2196,
        "Ġhard": 2197,
        "cean": 2198,
        "Ġ25": 2199,
        "Ġless": 2200,
        "Ġsit": 2201,
        "ĠNo": 2202,
        "urther": 2203,
        "heast": 2204,
        "Ġmeas": 2205,
        "ĠMich": 2206,
        "umb": 2207,
        "Th": 2208,
        "Ġbank": 2209,
        "ĠMal": 2210,
        "Ġaverage": 2211,
        "osp": 2212,
        "ridge": 2213,
        "Ġtax": 2214,
        "ka": 2215,
        "reg": 2216,
        "ĠPres": 2217,
        "Ġrepl": 2218,
        "Ġsaid": 2219,
        "Ġtypically": 2220,
        "Ġeduc": 2221,
        "Ġformed": 2222,
        "Ġred": 2223,
        "ead": 2224,
        "antic": 2225,
        "rad": 2226,
        "Ġclaim": 2227,
        "nect": 2228,
        "cher": 2229,
        "ero": 2230,
        "ube": 2231,
        "ele": 2232,
        "Ġneeded": 2233,
        "pecial": 2234,
        "arty": 2235,
        "Ġgenerally": 2236,
        "cis": 2237,
        "agement": 2238,
        "aces": 2239,
        "ae": 2240,
        "Â°": 2241,
        "Ġformat": 2242,
        "Ġavail": 2243,
        "bs": 2244,
        "Ġspecific": 2245,
        "utive": 2246,
        "ĠCollege": 2247,
        "Ġfunction": 2248,
        "Ġturn": 2249,
        "Ġdra": 2250,
        "Ġrul": 2251,
        "ica": 2252,
        "ipp": 2253,
        "ĠAc": 2254,
        "ĠGro": 2255,
        "Ġcover": 2256,
        "Ġbord": 2257,
        "Ġpot": 2258,
        "ĠComp": 2259,
        "Ġtake": 2260,
        "ĠCong": 2261,
        "Ġprop": 2262,
        "oph": 2263,
        "ham": 2264,
        "Ġel": 2265,
        "AT": 2266,
        "ĠBay": 2267,
        "Ġprinc": 2268,
        "ĠEmp": 2269,
        "Ġservices": 2270,
        "lin": 2271,
        "gg": 2272,
        "Ġplan": 2273,
        "ael": 2274,
        "ĠVal": 2275,
        "ufact": 2276,
        "Ġ1980": 2277,
        "Ġsometimes": 2278,
        "erous": 2279,
        "Ġsoftware": 2280,
        "oor": 2281,
        "ĠDis": 2282,
        "ĠRes": 2283,
        "Ġcame": 2284,
        "oe": 2285,
        "ĠUnion": 2286,
        "Ġtelevision": 2287,
        "Ġtheory": 2288,
        "Ġtre": 2289,
        "Ch": 2290,
        "Ġwomen": 2291,
        "ned": 2292,
        "Ġlay": 2293,
        "ĠGold": 2294,
        "icro": 2295,
        "alk": 2296,
        "Ġbir": 2297,
        "Ġview": 2298,
        "itz": 2299,
        "Ġfollowed": 2300,
        "ydro": 2301,
        "iber": 2302,
        "ĠAir": 2303,
        "Ġfather": 2304,
        "Ġbullet": 2305,
        "ĠBased": 2306,
        "Ġgradu": 2307,
        "ĠDuring": 2308,
        "Ġ189": 2309,
        "uck": 2310,
        "Ġleast": 2311,
        "Ġphot": 2312,
        "asing": 2313,
        "atest": 2314,
        "iest": 2315,
        "atin": 2316,
        "Ġ187": 2317,
        "ĠGeorge": 2318,
        "ably": 2319,
        "Ġhouse": 2320,
        "Ġscient": 2321,
        "ara": 2322,
        "ĠAtl": 2323,
        "Ġamount": 2324,
        "ming": 2325,
        "Ġ2006": 2326,
        "ashington": 2327,
        "ysis": 2328,
        "Ġfind": 2329,
        "Ġgive": 2330,
        "Ġlive": 2331,
        "itch": 2332,
        "ĠGrand": 2333,
        "Ġreach": 2334,
        "ours": 2335,
        "urb": 2336,
        "Ġbelow": 2337,
        "Ġft": 2338,
        "ĠiPhone": 2339,
        "ademy": 2340,
        "Ġaddition": 2341,
        "aur": 2342,
        "ta": 2343,
        "viron": 2344,
        "avy": 2345,
        "ocr": 2346,
        "Ġ186": 2347,
        "mercial": 2348,
        "ique": 2349,
        "Ġfree": 2350,
        "iol": 2351,
        "cient": 2352,
        "Ġmanufact": 2353,
        "ĠAccording": 2354,
        "Ġfinancial": 2355,
        "Ġblack": 2356,
        "ĠChar": 2357,
        "Ġhost": 2358,
        "iction": 2359,
        "Ġincludes": 2360,
        "Ġdesigned": 2361,
        "icy": 2362,
        "Ġothers": 2363,
        "ĠCentral": 2364,
        "Ġ2004": 2365,
        "Ġelectrical": 2366,
        "Ġsem": 2367,
        "Ġworldwide": 2368,
        "Ġextract": 2369,
        "esp": 2370,
        "wor": 2371,
        "Ġwide": 2372,
        "Ġareas": 2373,
        "Ġwhite": 2374,
        "Ġrelations": 2375,
        "Ġtr": 2376,
        "Ġhon": 2377,
        "ĠAssoci": 2378,
        "ĠWashington": 2379,
        "ĠSl": 2380,
        "Ġpred": 2381,
        "ĠPort": 2382,
        "acific": 2383,
        "illed": 2384,
        "ago": 2385,
        "rial": 2386,
        "Ġke": 2387,
        "Ġtown": 2388,
        ".,": 2389,
        "Ġfeatures": 2390,
        "Ġthroughout": 2391,
        "Ġassociated": 2392,
        "rice": 2393,
        "mit": 2394,
        "Ġwinning": 2395,
        "nown": 2396,
        "arily": 2397,
        "âĢĻ": 2398,
        "ush": 2399,
        "Ġcost": 2400,
        "Ġworks": 2401,
        "Ġcondu": 2402,
        "Ġiss": 2403,
        "ĠArt": 2404,
        "Ġimpro": 2405,
        "Ġtypes": 2406,
        "itud": 2407,
        "ico": 2408,
        "empt": 2409,
        "Ġmean": 2410,
        "olf": 2411,
        "Ġev": 2412,
        "oring": 2413,
        "ĠBill": 2414,
        "mon": 2415,
        "Ġconcept": 2416,
        "ĠMe": 2417,
        "ĠSum": 2418,
        "ores": 2419,
        "ĠSpanish": 2420,
        "field": 2421,
        ".[": 2422,
        "ification": 2423,
        "Ġfourth": 2424,
        "Ġconsum": 2425,
        "Ġlost": 2426,
        "Ġsym": 2427,
        "ius": 2428,
        "Ġliter": 2429,
        "ĠPresident": 2430,
        "Ġinterest": 2431,
        "ranch": 2432,
        "Ġ27": 2433,
        "apore": 2434,
        "ĠPe": 2435,
        "Ġstudy": 2436,
        "isk": 2437,
        "Ġfamous": 2438,
        "ĠGreat": 2439,
        "ference": 2440,
        "Ġforce": 2441,
        "Ġapprox": 2442,
        "ĠEmpire": 2443,
        "Ġsun": 2444,
        "Ġfund": 2445,
        "ania": 2446,
        "Ġproducts": 2447,
        "Ġge": 2448,
        "Ġtype": 2449,
        "rew": 2450,
        "St": 2451,
        "che": 2452,
        "cil": 2453,
        "Ġant": 2454,
        "writ": 2455,
        "ĠHigh": 2456,
        "time": 2457,
        "Ġknow": 2458,
        "ert": 2459,
        "Ġ2000": 2460,
        "Ġmoved": 2461,
        "Ġregard": 2462,
        "oks": 2463,
        "Ġfull": 2464,
        "rain": 2465,
        "utes": 2466,
        "ria": 2467,
        "ĠApp": 2468,
        "augh": 2469,
        "ĠThom": 2470,
        "Ġprob": 2471,
        "Ġmultiple": 2472,
        "ĠPlay": 2473,
        "sy": 2474,
        "Ġflu": 2475,
        "Ġdebut": 2476,
        "ateg": 2477,
        "Ġplaying": 2478,
        "ĠReg": 2479,
        "Ġcertain": 2480,
        "Ġincome": 2481,
        "ĠLa": 2482,
        "Ġstandard": 2483,
        "21": 2484,
        "Ġ21": 2485,
        "ini": 2486,
        "aining": 2487,
        "Ġseven": 2488,
        "Ġround": 2489,
        "ĠAwards": 2490,
        "ĠHall": 2491,
        "Ġelectron": 2492,
        "action": 2493,
        "Ġide": 2494,
        "ĠEn": 2495,
        "lement": 2496,
        "Ġvict": 2497,
        "Ġshould": 2498,
        "cord": 2499,
        "ĠFrancis": 2500,
        "uk": 2501,
        "ĠCongress": 2502,
        "stitution": 2503,
        "ĠDem": 2504,
        "Ġcomma": 2505,
        "Ġcommercial": 2506,
        "ĠHol": 2507,
        "ĠSome": 2508,
        "Ġstory": 2509,
        "ĠAng": 2510,
        "arent": 2511,
        "ĠDay": 2512,
        "Ġenviron": 2513,
        "Ġprocessing": 2514,
        "ĠVir": 2515,
        "Ġ24": 2516,
        "acy": 2517,
        "ien": 2518,
        "Ġpersonal": 2519,
        "Ġten": 2520,
        "Ġincreased": 2521,
        "Ġfail": 2522,
        "Ġvia": 2523,
        "Ġfilms": 2524,
        "aign": 2525,
        "ĠIts": 2526,
        "ways": 2527,
        "Ġsource": 2528,
        "Ġprompt": 2529,
        "ope": 2530,
        "Ġvariety": 2531,
        "Ġcond": 2532,
        "ĠSte": 2533,
        "Ġaccount": 2534,
        "ĠHouse": 2535,
        "On": 2536,
        "Ġ2005": 2537,
        "Ġestimated": 2538,
        "rote": 2539,
        "ĠEm": 2540,
        "aves": 2541,
        "ĠAcademy": 2542,
        "Ġcompon": 2543,
        "ĠItal": 2544,
        "Ġwent": 2545,
        "ishing": 2546,
        "Ġattempt": 2547,
        "Ġtemper": 2548,
        "Ġpopul": 2549,
        "hi": 2550,
        "ĠPacific": 2551,
        "Ġresults": 2552,
        "Ġposition": 2553,
        "inent": 2554,
        "ĠRober": 2555,
        "ellow": 2556,
        "Ġcat": 2557,
        "ĠAssociation": 2558,
        "Ġsummer": 2559,
        "Ġinteg": 2560,
        "Ġacqu": 2561,
        "Ġgood": 2562,
        "Ġson": 2563,
        "uclear": 2564,
        "Ġchange": 2565,
        "urg": 2566,
        "ĠSingapore": 2567,
        "Ġbar": 2568,
        "fic": 2569,
        "Ġ2023": 2570,
        "aper": 2571,
        "Ġterms": 2572,
        "Ġmy": 2573,
        "ĠCap": 2574,
        "Ġindustry": 2575,
        "Ġbelie": 2576,
        "Ġperformance": 2577,
        "Ġrespons": 2578,
        "Ġvalue": 2579,
        "Ġbegin": 2580,
        "ĠTour": 2581,
        "aged": 2582,
        "Ġkil": 2583,
        "ĠRich": 2584,
        "ĠNBA": 2585,
        "Ġfruits": 2586,
        "ads": 2587,
        "22": 2588,
        "Ġmachine": 2589,
        "ĠSoc": 2590,
        "Ġshare": 2591,
        "Ġgreat": 2592,
        "ford": 2593,
        "ÃŃ": 2594,
        "iang": 2595,
        "ĠRed": 2596,
        "Ġanalysis": 2597,
        "ĠSch": 2598,
        "Ġprovide": 2599,
        "Ġavailable": 2600,
        "Ġfac": 2601,
        "artment": 2602,
        "ĠJapanese": 2603,
        "Ġfar": 2604,
        "Ġgr": 2605,
        "Ġleader": 2606,
        "oviet": 2607,
        "lectric": 2608,
        "chan": 2609,
        "Ġfri": 2610,
        "Ġcr": 2611,
        "Ġhydro": 2612,
        "Ġfr": 2613,
        "ster": 2614,
        "FA": 2615,
        "Ġjoined": 2616,
        "Ġadminist": 2617,
        "Ġuses": 2618,
        "60": 2619,
        "Ġenc": 2620,
        "Ġ{": 2621,
        "Ġbase": 2622,
        "Ġcell": 2623,
        "uit": 2624,
        "ellig": 2625,
        "Ġtrained": 2626,
        "Ġfire": 2627,
        "aken": 2628,
        "Ġopt": 2629,
        "Ġconnect": 2630,
        "Ġalthough": 2631,
        "ĠBer": 2632,
        "Ġcentral": 2633,
        "Ġweek": 2634,
        "ĠYear": 2635,
        "inn": 2636,
        "ving": 2637,
        "Ġrights": 2638,
        "Ġleading": 2639,
        "Ġhealth": 2640,
        "Ġdog": 2641,
        "Ġ0": 2642,
        "Ġ28": 2643,
        "Ġ40": 2644,
        "wood": 2645,
        "ĠGl": 2646,
        "Ġleague": 2647,
        "eth": 2648,
        "Ġpriv": 2649,
        "ĠAI": 2650,
        "Ġmer": 2651,
        "Ġtravel": 2652,
        "Ġeight": 2653,
        "ership": 2654,
        "Ġpast": 2655,
        "Ġmass": 2656,
        "ĠMor": 2657,
        "Ġemer": 2658,
        "Ġradio": 2659,
        "wh": 2660,
        "Ġfurther": 2661,
        "Ġ29": 2662,
        "ĠIsland": 2663,
        "ĠDavid": 2664,
        "oted": 2665,
        "ĠGener": 2666,
        "Ġget": 2667,
        "ĠAb": 2668,
        "asters": 2669,
        "Ġmaintain": 2670,
        "âĢĬ": 2671,
        "He": 2672,
        "Ġoffer": 2673,
        "Ġgroups": 2674,
        "cre": 2675,
        "Ġmiles": 2676,
        "ees": 2677,
        "ront": 2678,
        "ĠWhile": 2679,
        "Ġtro": 2680,
        "pro": 2681,
        "Ġcreate": 2682,
        "Ġhowever": 2683,
        "ography": 2684,
        "Ġdeg": 2685,
        "Ġparts": 2686,
        "Ġworked": 2687,
        "LM": 2688,
        "Ġcust": 2689,
        "Ġrecorded": 2690,
        "Ġprevent": 2691,
        "ox": 2692,
        "ittle": 2693,
        "Ġbroad": 2694,
        "Ġground": 2695,
        "Ġsecurity": 2696,
        "Ġelectricity": 2697,
        "ĠMet": 2698,
        "Ġ50": 2699,
        "Ġneg": 2700,
        "ĠArab": 2701,
        "Ġcoast": 2702,
        "Ġregions": 2703,
        "Ġsales": 2704,
        "Ġparticip": 2705,
        "Ġmonths": 2706,
        "Ġtemperature": 2707,
        "Ġtitles": 2708,
        "Ã³": 2709,
        "ĠSen": 2710,
        "ĠNor": 2711,
        "Ġsize": 2712,
        "Ġgreatest": 2713,
        "Ġbene": 2714,
        "like": 2715,
        "Ġste": 2716,
        "Ġgrowth": 2717,
        "Ġdom": 2718,
        "'t": 2719,
        "venue": 2720,
        "stant": 2721,
        "Ġreached": 2722,
        "ĠAnt": 2723,
        "Ġ1960": 2724,
        "Ġrelease": 2725,
        "aches": 2726,
        "Ġforms": 2727,
        "Ġapproximately": 2728,
        "eum": 2729,
        "Ġdate": 2730,
        "ĠGreek": 2731,
        "stitute": 2732,
        "Ġhot": 2733,
        "iting": 2734,
        "Ġmedia": 2735,
        "ĠGroup": 2736,
        "ari": 2737,
        "ĠItaly": 2738,
        "Ġrelationship": 2739,
        "itude": 2740,
        "ander": 2741,
        "Ġcolle": 2742,
        "Ġship": 2743,
        "ĠSoviet": 2744,
        "Ġcoll": 2745,
        "pecially": 2746,
        "Ġcop": 2747,
        "ĠItalian": 2748,
        "Ġhit": 2749,
        "Ġmention": 2750,
        "idence": 2751,
        "served": 2752,
        "Ġstrong": 2753,
        "year": 2754,
        "ha": 2755,
        "Ġstyle": 2756,
        "à¤": 2757,
        "Ġloss": 2758,
        "Ġcontribut": 2759,
        "Ġtog": 2760,
        "lected": 2761,
        "Ġsubject": 2762,
        "Ġcommunity": 2763,
        "pped": 2764,
        "Ġ1970": 2765,
        "Ġengineering": 2766,
        "..": 2767,
        "ribution": 2768,
        "Ġeconomy": 2769,
        "Ġelements": 2770,
        "ya": 2771,
        "ketball": 2772,
        "resh": 2773,
        "Ġawarded": 2774,
        "known": 2775,
        "Ġtogether": 2776,
        "Ġsports": 2777,
        "Ġaccess": 2778,
        "Ġqual": 2779,
        "ĠGra": 2780,
        "Ġintern": 2781,
        "struct": 2782,
        "cell": 2783,
        "ira": 2784,
        "aut": 2785,
        "ĠMad": 2786,
        "ought": 2787,
        "Ġnovel": 2788,
        "Ġexamples": 2789,
        "ops": 2790,
        "Ġder": 2791,
        "Ġsound": 2792,
        "Ġaud": 2793,
        "Ġfrequ": 2794,
        "CA": 2795,
        "Ġsquare": 2796,
        "ĠAtlantic": 2797,
        "Ġcricket": 2798,
        "Ġvillage": 2799,
        "Ġtraditional": 2800,
        "ĠMichael": 2801,
        "ĠAlthough": 2802,
        "Ġbecoming": 2803,
        "istan": 2804,
        "Ġdru": 2805,
        "iding": 2806,
        "Ġprimary": 2807,
        "Ġwrote": 2808,
        "lease": 2809,
        "anding": 2810,
        "Ġoutside": 2811,
        "Ġlower": 2812,
        "Ġmag": 2813,
        "adium": 2814,
        "ĠTra": 2815,
        "Ġyoung": 2816,
        "ĠHaw": 2817,
        "ĠVirgin": 2818,
        "Ġmechan": 2819,
        "inister": 2820,
        "ĠPat": 2821,
        "val": 2822,
        "nal": 2823,
        "Ġonce": 2824,
        "tra": 2825,
        "Ġwind": 2826,
        "olk": 2827,
        "ements": 2828,
        "ĠMod": 2829,
        "Ġcharg": 2830,
        "bit": 2831,
        "Ġbrother": 2832,
        "anded": 2833,
        "cont": 2834,
        "ĠMer": 2835,
        "Ġtask": 2836,
        "ĠOff": 2837,
        "Ġaccom": 2838,
        "ij": 2839,
        "Ġworking": 2840,
        "Ġ2002": 2841,
        "Ġoriginally": 2842,
        "Ġ26": 2843,
        "Ġinvent": 2844,
        "Ġmovement": 2845,
        "ache": 2846,
        "aff": 2847,
        "Ġprem": 2848,
        "ĠBel": 2849,
        "Ġadded": 2850,
        "uries": 2851,
        "Ġespecially": 2852,
        "Ġphil": 2853,
        "Ġdoc": 2854,
        "Ġmathem": 2855,
        "ĠTer": 2856,
        "Ġins": 2857,
        "Ġfight": 2858,
        "Ġfeet": 2859,
        "Ġhigher": 2860,
        "Ġquant": 2861,
        "Ġbatter": 2862,
        "ators": 2863,
        "Ġabove": 2864,
        "wik": 2865,
        "Ġhol": 2866,
        "Ġregular": 2867,
        "ceed": 2868,
        "Ġaltern": 2869,
        "ounter": 2870,
        "Ġsuggest": 2871,
        "ĠBlack": 2872,
        "Ġpossible": 2873,
        "Ġactive": 2874,
        "Ġkilomet": 2875,
        "Ġtarg": 2876,
        "Ġtrad": 2877,
        "craft": 2878,
        "ĠMusic": 2879,
        "Ġ23": 2880,
        "ipl": 2881,
        "ech": 2882,
        "Ġforces": 2883,
        "ĠList": 2884,
        "Ġright": 2885,
        "ĠMost": 2886,
        "bert": 2887,
        "ression": 2888,
        "off": 2889,
        "Ġcompetition": 2890,
        "Ġcontent": 2891,
        "oss": 2892,
        "ĠAustralian": 2893,
        "imin": 2894,
        "ston": 2895,
        "Ġalmost": 2896,
        "Ġculture": 2897,
        "Ġcampaign": 2898,
        "ĠDel": 2899,
        "Ġseen": 2900,
        "198": 2901,
        "ĠPer": 2902,
        "Ġ(/": 2903,
        "Ġoil": 2904,
        "Éª": 2905,
        "Ġliving": 2906,
        "Ġrespect": 2907,
        "uals": 2908,
        "Ġrelated": 2909,
        "Ġrecords": 2910,
        "istor": 2911,
        "ĠBest": 2912,
        "itan": 2913,
        "Ġspread": 2914,
        "ĠSea": 2915,
        "osition": 2916,
        "ĠPaul": 2917,
        "gypt": 2918,
        "ĠParty": 2919,
        "ĠRobert": 2920,
        "atively": 2921,
        "Ġcal": 2922,
        "Ġphysical": 2923,
        "Ġincrease": 2924,
        "edia": 2925,
        "ĠFl": 2926,
        "Ġrate": 2927,
        "ocratic": 2928,
        "Ġeventually": 2929,
        "anted": 2930,
        "Ġstar": 2931,
        "Ġcolon": 2932,
        "25": 2933,
        "Ġdise": 2934,
        "ville": 2935,
        "Ġunivers": 2936,
        "based": 2937,
        "Ġprior": 2938,
        "Ġcustom": 2939,
        "Ġorganization": 2940,
        "Ġcontinued": 2941,
        "ills": 2942,
        "Ġnumerous": 2943,
        "osing": 2944,
        "Ġdat": 2945,
        "igital": 2946,
        "Ġenvironment": 2947,
        "edy": 2948,
        "ging": 2949,
        "Ġdistrict": 2950,
        "Ġaway": 2951,
        "Ġnature": 2952,
        "ume": 2953,
        "Ġrelig": 2954,
        "utions": 2955,
        "hib": 2956,
        "Ġsurv": 2957,
        "pid": 2958,
        "Ġprimarily": 2959,
        "Ġarg": 2960,
        "iff": 2961,
        "spe": 2962,
        "Ġdeterm": 2963,
        "uture": 2964,
        "ĠOcean": 2965,
        "atory": 2966,
        "ĠMah": 2967,
        "Ġstage": 2968,
        "Ġsouthern": 2969,
        "Ġdam": 2970,
        "ffee": 2971,
        "right": 2972,
        "eles": 2973,
        "ampion": 2974,
        "Ġmanagement": 2975,
        "Ġadditional": 2976,
        "go": 2977,
        "Ġdefin": 2978,
        "Ġstructure": 2979,
        "ager": 2980,
        "Ġparticularly": 2981,
        "eleb": 2982,
        "zil": 2983,
        "sel": 2984,
        "ĠPal": 2985,
        "ĠEgypt": 2986,
        "ili": 2987,
        "Ġcaused": 2988,
        "ledge": 2989,
        "Ġdates": 2990,
        "ouncil": 2991,
        "Ġdest": 2992,
        "Ġbreak": 2993,
        "Ġseasons": 2994,
        "aries": 2995,
        "Ġmem": 2996,
        "Ġwords": 2997,
        "Ġhydrogen": 2998,
        "Ġ2001": 2999,
        "Ġresour": 3000,
        "Ġtreat": 3001,
        "Ġcapt": 3002,
        "Ġsinger": 3003,
        "ficult": 3004,
        "Ġlanguages": 3005,
        "ĠSince": 3006,
        "Ġversion": 3007,
        "Ġsingles": 3008,
        "Ġpurp": 3009,
        "ĠWhere": 3010,
        "ĠDo": 3011,
        "Ġstation": 3012,
        "EC": 3013,
        "Ġnuclear": 3014,
        "Ġking": 3015,
        "ennis": 3016,
        "set": 3017,
        "Ġsubsequ": 3018,
        "Ġsigned": 3019,
        "Ġ1989": 3020,
        "Ġprote": 3021,
        "Ġeducation": 3022,
        "Ġnorthern": 3023,
        "aker": 3024,
        "ĠQu": 3025,
        "Ġtru": 3026,
        "ĠFrancisco": 3027,
        "azon": 3028,
        "ĠApple": 3029,
        "Ġuniversity": 3030,
        "intend": 3031,
        "Ġ31": 3032,
        "Ġcomplex": 3033,
        "Ġindividual": 3034,
        "Ġ1998": 3035,
        "atch": 3036,
        "Ġspeed": 3037,
        "Ġreported": 3038,
        "Ġable": 3039,
        "Ġislands": 3040,
        "Ġopened": 3041,
        "Ġbig": 3042,
        "ĠSpain": 3043,
        "ĠWood": 3044,
        "irement": 3045,
        "ificial": 3046,
        "Ġentire": 3047,
        "ĠMart": 3048,
        "ĠKore": 3049,
        "Tube": 3050,
        "Ġcities": 3051,
        "Ġsitu": 3052,
        "Ġdifficult": 3053,
        "ician": 3054,
        "ĠSant": 3055,
        "Ġ1999": 3056,
        "ients": 3057,
        "han": 3058,
        "Ġfif": 3059,
        "ĠQue": 3060,
        "elligence": 3061,
        "ĠTur": 3062,
        "ĠAlex": 3063,
        "Ġlarger": 3064,
        "ĠFederer": 3065,
        "Ġappoint": 3066,
        "ĠSystem": 3067,
        "sw": 3068,
        "ream": 3069,
        "Ġsurface": 3070,
        "Ġread": 3071,
        "Ġmountain": 3072,
        "Ġalbums": 3073,
        "works": 3074,
        "Ġrunning": 3075,
        "ĠAg": 3076,
        "ogle": 3077,
        "ĠZe": 3078,
        "ĠMex": 3079,
        "yp": 3080,
        "ĠÂ°": 3081,
        "que": 3082,
        "Ġnation": 3083,
        "vin": 3084,
        "Ġseparated": 3085,
        "Ġquest": 3086,
        "70": 3087,
        "Ġlaunched": 3088,
        "Ġren": 3089,
        "40": 3090,
        "Ġdomin": 3091,
        "sec": 3092,
        "Ġclose": 3093,
        "ao": 3094,
        "ĠBrazil": 3095,
        "odes": 3096,
        "ĠCompany": 3097,
        "ĠFrank": 3098,
        "esla": 3099,
        "Ġexec": 3100,
        "ises": 3101,
        "icated": 3102,
        "Ġpercent": 3103,
        "usion": 3104,
        "Ġgold": 3105,
        "ĠÃ": 3106,
        "Ġord": 3107,
        "Ġrather": 3108,
        "Ġoffice": 3109,
        "ĠCE": 3110,
        "ĠAp": 3111,
        "Ġoldest": 3112,
        "Ġrail": 3113,
        "self": 3114,
        "vised": 3115,
        "alle": 3116,
        "ATO": 3117,
        "bed": 3118,
        "apt": 3119,
        "Ġremains": 3120,
        "Ġconc": 3121,
        "Ġancient": 3122,
        "ĠCamp": 3123,
        "ste": 3124,
        "Ġarticle": 3125,
        "ply": 3126,
        "ola": 3127,
        "ĠĠ": 3128,
        "Ġpen": 3129,
        "Ġstri": 3130,
        "Ġdirected": 3131,
        "ĠRoy": 3132,
        "Ġtri": 3133,
        "Ġfresh": 3134,
        "Ġproblems": 3135,
        "Ġlocation": 3136,
        "ump": 3137,
        "Ġself": 3138,
        "Ġbehind": 3139,
        "ifying": 3140,
        "Ġupon": 3141,
        "axim": 3142,
        "Ġbatt": 3143,
        "Ġcross": 3144,
        "utch": 3145,
        "orage": 3146,
        "Ġwhose": 3147,
        "ĠCont": 3148,
        "ĠFirst": 3149,
        "ĠTo": 3150,
        "Ġsmaller": 3151,
        "rick": 3152,
        "ĠRecord": 3153,
        "iant": 3154,
        "Ġ1997": 3155,
        "Ġnomin": 3156,
        "ĠInc": 3157,
        "Ġfem": 3158,
        "Ġsequ": 3159,
        "Ġpark": 3160,
        "key": 3161,
        "asc": 3162,
        "ĠLLM": 3163,
        "ĠYouTube": 3164,
        "ĠIf": 3165,
        "ĠOther": 3166,
        "akers": 3167,
        "Ġput": 3168,
        "chest": 3169,
        "ĠHen": 3170,
        "iers": 3171,
        "Ġmeaning": 3172,
        "ĠMass": 3173,
        "Ġmother": 3174,
        "Ġprivate": 3175,
        "ĠSec": 3176,
        "Ġvoc": 3177,
        "ĠArmy": 3178,
        "FL": 3179,
        "Ġsearch": 3180,
        "ĠMount": 3181,
        "icon": 3182,
        "Ġchanges": 3183,
        "ux": 3184,
        "Ġheadqu": 3185,
        "izing": 3186,
        "ĠAfrican": 3187,
        "list": 3188,
        ");": 3189,
        "ĠMary": 3190,
        "ourt": 3191,
        "ĠDep": 3192,
        "Ġcritic": 3193,
        "ont": 3194,
        "be": 3195,
        "oon": 3196,
        "Ġarr": 3197,
        "ĠTesla": 3198,
        "ita": 3199,
        "Ġlon": 3200,
        "Ġofficially": 3201,
        "Ġcred": 3202,
        "ĠClub": 3203,
        "Ġpressure": 3204,
        "Ġapplications": 3205,
        "berg": 3206,
        "back": 3207,
        "Ġsite": 3208,
        "overs": 3209,
        "ĠParis": 3210,
        "ems": 3211,
        "intendo": 3212,
        "Ġcenter": 3213,
        "Ġfeder": 3214,
        "ĠEastern": 3215,
        "Ġcompleted": 3216,
        "Ġisland": 3217,
        "Ġinj": 3218,
        "ĠWe": 3219,
        "ĠDist": 3220,
        "Ġbehav": 3221,
        "Ġfruit": 3222,
        "Ġpractice": 3223,
        "ĠAmazon": 3224,
        "Ġcollege": 3225,
        "ĠKar": 3226,
        "Ġmeans": 3227,
        "BC": 3228,
        "ixed": 3229,
        "ĠPay": 3230,
        "Ġ2003": 3231,
        "ĠChristian": 3232,
        "Ġconditions": 3233,
        "Ġlab": 3234,
        "Ġdefined": 3235,
        "âĢ¢": 3236,
        "Ġepis": 3237,
        "Ġlik": 3238,
        "ĠGoogle": 3239,
        "Ġdried": 3240,
        "Ġitself": 3241,
        "Ġ1991": 3242,
        "ength": 3243,
        "ivity": 3244,
        "It": 3245,
        "ables": 3246,
        "itor": 3247,
        "anc": 3248,
        "ĠLatin": 3249,
        "abit": 3250,
        "ID": 3251,
        "lying": 3252,
        "isation": 3253,
        "yani": 3254,
        "Ġmusical": 3255,
        "ala": 3256,
        "Americ": 3257,
        "Ġjour": 3258,
        "Ġsaf": 3259,
        "vert": 3260,
        "80": 3261,
        "Ġbenef": 3262,
        "ĠBh": 3263,
        "Ġprincip": 3264,
        "ditionally": 3265,
        "ĠMark": 3266,
        "ighb": 3267,
        "Ġcorpor": 3268,
        "Ġcharacters": 3269,
        "esh": 3270,
        "Ġboard": 3271,
        "ona": 3272,
        "estival": 3273,
        "Ġelection": 3274,
        "Ġpow": 3275,
        "opp": 3276,
        "Ġinvolved": 3277,
        "ids": 3278,
        "Ġtransfer": 3279,
        "olic": 3280,
        "Ġtool": 3281,
        "rd": 3282,
        "Ġpers": 3283,
        "alls": 3284,
        "ĠLaw": 3285,
        "Ġcry": 3286,
        "Ġinstru": 3287,
        "Ġproperty": 3288,
        "Ġfranch": 3289,
        "ĠNintendo": 3290,
        "ounded": 3291,
        "Ġbrand": 3292,
        "ĠChic": 3293,
        "Ġgoal": 3294,
        "Ġgoals": 3295,
        "Ġdefeated": 3296,
        "por": 3297,
        "Ġviol": 3298,
        "Ġapproach": 3299,
        "ĠStrat": 3300,
        "Ġhous": 3301,
        "Ġcourse": 3302,
        "owl": 3303,
        "Ġcoach": 3304,
        "DP": 3305,
        "ĠThomas": 3306,
        "Ġcase": 3307,
        "Ġcars": 3308,
        "Ġimpact": 3309,
        "Ġpeak": 3310,
        "Ġprotect": 3311,
        "aud": 3312,
        "Ġperformed": 3313,
        "anced": 3314,
        "Ġmill": 3315,
        "Ġdirector": 3316,
        "hood": 3317,
        "ĠInter": 3318,
        "Ġhor": 3319,
        "Ġinfluence": 3320,
        "Ġpositive": 3321,
        "Ġmovie": 3322,
        "Ġadop": 3323,
        "onse": 3324,
        "Ġrapid": 3325,
        "Ġmentioned": 3326,
        "Ġearlier": 3327,
        "ras": 3328,
        "ibility": 3329,
        "inct": 3330,
        "Ġcode": 3331,
        "Ġdry": 3332,
        "fin": 3333,
        "Ġrequired": 3334,
        "Ġbooks": 3335,
        "Ġcoffee": 3336,
        "Ġtarget": 3337,
        "Ġclimate": 3338,
        "airs": 3339,
        "uning": 3340,
        "ĠFootball": 3341,
        "Ġreturned": 3342,
        "aps": 3343,
        "Ġranked": 3344,
        "Ġconsists": 3345,
        "icles": 3346,
        "Ġelected": 3347,
        "Ġresident": 3348,
        "asy": 3349,
        "Ġneighb": 3350,
        "ĠSouthern": 3351,
        "ental": 3352,
        "ĠMil": 3353,
        "istance": 3354,
        "Ġenter": 3355,
        "ript": 3356,
        "Ġobjects": 3357,
        "ĠCharles": 3358,
        "Ġstudents": 3359,
        "itte": 3360,
        "nder": 3361,
        "eh": 3362,
        "ĠDiv": 3363,
        "ĠMicro": 3364,
        "bre": 3365,
        "Ġ1950": 3366,
        "Ġrequire": 3367,
        "ails": 3368,
        "bon": 3369,
        "Ġemp": 3370,
        "Ġceleb": 3371,
        "Ġvir": 3372,
        "Ġkeep": 3373,
        "hold": 3374,
        "ipedia": 3375,
        "ĠRussia": 3376,
        "ĠSam": 3377,
        "phy": 3378,
        "rm": 3379,
        "Ġagre": 3380,
        "Ġdomest": 3381,
        "Ġfeatured": 3382,
        "Ġlog": 3383,
        "Ġrain": 3384,
        "ura": 3385,
        "Ġeffects": 3386,
        "ĠSm": 3387,
        "bers": 3388,
        "Ġdeep": 3389,
        "ĠIslands": 3390,
        "Ã¶": 3391,
        "ĠOlympics": 3392,
        "ĠBen": 3393,
        "Ġfish": 3394,
        "Ġmajority": 3395,
        "roy": 3396,
        "ena": 3397,
        "Ġraised": 3398,
        "ĠNATO": 3399,
        "Ġfuture": 3400,
        "ĠSwift": 3401,
        "ĠStre": 3402,
        "enez": 3403,
        "Al": 3404,
        "ĠTamil": 3405,
        "Ġoperating": 3406,
        "Ġcateg": 3407,
        "Ġinsp": 3408,
        "Ġclos": 3409,
        "Ġbeginning": 3410,
        "wing": 3411,
        "Ġever": 3412,
        "Ġproblem": 3413,
        "irl": 3414,
        "ĠChe": 3415,
        "ingu": 3416,
        "ĠMiddle": 3417,
        "selves": 3418,
        "ĠDisney": 3419,
        "ĠBu": 3420,
        "astic": 3421,
        "Ġmatches": 3422,
        "Ġ60": 3423,
        "ada": 3424,
        "Ġbetter": 3425,
        "Ġreview": 3426,
        "Ġfinished": 3427,
        "Ġinstead": 3428,
        "Ġblock": 3429,
        "Ġ1992": 3430,
        "outheast": 3431,
        "Ġweight": 3432,
        "Ġunderst": 3433,
        "ĠWhich": 3434,
        "Ġcolor": 3435,
        "Ġthemselves": 3436,
        "anks": 3437,
        "sych": 3438,
        "Ġer": 3439,
        "ĠOs": 3440,
        "enezuel": 3441,
        "Ġpie": 3442,
        "citation": 3443,
        "eff": 3444,
        "Ġterritory": 3445,
        "iance": 3446,
        "irm": 3447,
        "ett": 3448,
        "Ġrevenue": 3449,
        "ĠUK": 3450,
        "Ġ1983": 3451,
        "ĠCouncil": 3452,
        "ĠJose": 3453,
        "Ġdram": 3454,
        "Ġknowledge": 3455,
        "Ġruns": 3456,
        "Ġice": 3457,
        "Ġappeared": 3458,
        "ĠGeneral": 3459,
        "Ġliterature": 3460,
        "ĠWhite": 3461,
        "iences": 3462,
        "Ġextrem": 3463,
        "ĠStar": 3464,
        "Ġlongest": 3465,
        "igned": 3466,
        "Ġgave": 3467,
        "Ġpurch": 3468,
        "ĠCivil": 3469,
        "Ġartist": 3470,
        "ĠCanadian": 3471,
        "cks": 3472,
        "Ġchem": 3473,
        "rag": 3474,
        "Ġast": 3475,
        "uous": 3476,
        "itzer": 3477,
        "oston": 3478,
        "\")": 3479,
        "org": 3480,
        "Ġmight": 3481,
        "An": 3482,
        "ĠPers": 3483,
        "ĠHot": 3484,
        "Ġnearly": 3485,
        "pass": 3486,
        "Ġremov": 3487,
        "Ġimplement": 3488,
        "Ġmathemat": 3489,
        "Ġwriter": 3490,
        "Ġfast": 3491,
        "Ġ1996": 3492,
        "Ġlines": 3493,
        "Ġcurrently": 3494,
        "Ġrisk": 3495,
        "Ġsources": 3496,
        "ension": 3497,
        "ĠRecords": 3498,
        "Ġwife": 3499,
        "Ġcome": 3500,
        "inary": 3501,
        "ocks": 3502,
        "Ġretirement": 3503,
        "medi": 3504,
        "ĠPan": 3505,
        "Ġeastern": 3506,
        "ĠPrize": 3507,
        "Ġawards": 3508,
        "ĠVenezuel": 3509,
        "Ġdevice": 3510,
        "servation": 3511,
        "isp": 3512,
        "ulture": 3513,
        "large": 3514,
        "Ġtaken": 3515,
        "force": 3516,
        "ĠMany": 3517,
        "ios": 3518,
        "Ġmulti": 3519,
        "not": 3520,
        "ado": 3521,
        "Ġsimple": 3522,
        "Ġsynt": 3523,
        "Ġparent": 3524,
        "ĠLos": 3525,
        "Ġpotential": 3526,
        "Ġbasketball": 3527,
        "Ġearliest": 3528,
        "ĠSeattle": 3529,
        "Ġannual": 3530,
        "ensus": 3531,
        "ĠGolden": 3532,
        "Ġcause": 3533,
        "imal": 3534,
        "Ġadvant": 3535,
        "Ġegg": 3536,
        "istics": 3537,
        "Ġsee": 3538,
        "Ġwhether": 3539,
        "Ġsat": 3540,
        "lete": 3541,
        "nam": 3542,
        "Ġdigital": 3543,
        "Ġdistribution": 3544,
        "Ġdeal": 3545,
        "Ġriver": 3546,
        "ressed": 3547,
        "ĠJacks": 3548,
        "Ġgreen": 3549,
        "Ġstorage": 3550,
        "ĠTom": 3551,
        "Ġplant": 3552,
        "NA": 3553,
        "eds": 3554,
        "rate": 3555,
        "aging": 3556,
        "ĠCO": 3557,
        "ĠSwiss": 3558,
        "Ġ500": 3559,
        "cel": 3560,
        "Ġsil": 3561,
        "Ġdisease": 3562,
        "Ġnever": 3563,
        "Ġserve": 3564,
        "ĠChicago": 3565,
        "Ġweap": 3566,
        "Ġspeech": 3567,
        "Ġlevels": 3568,
        "ĠDemocratic": 3569,
        "Ġfederal": 3570,
        "ister": 3571,
        "Ġdocument": 3572,
        "Ġ1994": 3573,
        "ĠRam": 3574,
        "Ġswe": 3575,
        "enty": 3576,
        "Ġplants": 3577,
        "also": 3578,
        "Ġsurround": 3579,
        "urban": 3580,
        "Ġimm": 3581,
        "Ġquarter": 3582,
        "ibr": 3583,
        "Ġexpect": 3584,
        "Ġincorpor": 3585,
        "Ġinitial": 3586,
        "cast": 3587,
        "Ġallowed": 3588,
        "ports": 3589,
        "Ġcast": 3590,
        "ĠInstitute": 3591,
        "Äģ": 3592,
        "Ġ/": 3593,
        "Ġphilos": 3594,
        "Ġresponse": 3595,
        "Ġsumm": 3596,
        "Ġlaws": 3597,
        "Ġthus": 3598,
        "aring": 3599,
        "ĠTime": 3600,
        "izes": 3601,
        "gor": 3602,
        "Ġsea": 3603,
        "Ġhours": 3604,
        "actions": 3605,
        "rish": 3606,
        "Ġwealth": 3607,
        "ĠCourt": 3608,
        "Ġsens": 3609,
        "jp": 3610,
        "ĠMexico": 3611,
        "Ġcharge": 3612,
        "PT": 3613,
        "gent": 3614,
        "ĠJackson": 3615,
        "Ġabilities": 3616,
        "Ġkilometres": 3617,
        "Pal": 3618,
        "Ġrules": 3619,
        "Ġaccording": 3620,
        "Ġchanged": 3621,
        "rupt": 3622,
        "Ġallows": 3623,
        "ĠDr": 3624,
        "Ġtransport": 3625,
        "ĠFilm": 3626,
        "Ġcontract": 3627,
        "Ġfifth": 3628,
        "ection": 3629,
        "Ġfactors": 3630,
        "Ġchief": 3631,
        "ĠBoston": 3632,
        "ĠĊ": 3633,
        "ĠSur": 3634,
        "aland": 3635,
        "orial": 3636,
        "ĠBank": 3637,
        "23": 3638,
        "ĠHawai": 3639,
        "Ġcit": 3640,
        "ulated": 3641,
        "Ġdirectly": 3642,
        "izations": 3643,
        "Ġregarded": 3644,
        "Ġgrew": 3645,
        "American": 3646,
        "Ġquick": 3647,
        "Ġcook": 3648,
        "ĠBut": 3649,
        "75": 3650,
        "ĠOl": 3651,
        "ounds": 3652,
        "Ġ1995": 3653,
        "iament": 3654,
        "ga": 3655,
        "uster": 3656,
        "65": 3657,
        "ER": 3658,
        "rel": 3659,
        "ĠVirginia": 3660,
        "Ġtrade": 3661,
        "ĠLou": 3662,
        "iques": 3663,
        "raction": 3664,
        "equ": 3665,
        "Ġincreasing": 3666,
        "ki": 3667,
        "Ġhighly": 3668,
        "Ġscientific": 3669,
        "Ġcut": 3670,
        "Ġill": 3671,
        "hing": 3672,
        "Ġchampionships": 3673,
        "ĠRichard": 3674,
        "Ġoccurred": 3675,
        "Ġbelieved": 3676,
        "Ġparam": 3677,
        "ida": 3678,
        "Ġlimited": 3679,
        "Ġautom": 3680,
        "Ġappointed": 3681,
        "ription": 3682,
        "Ġcomponents": 3683,
        "Ġlonger": 3684,
        "Ġracing": 3685,
        "road": 3686,
        "iles": 3687,
        "Ġended": 3688,
        "unt": 3689,
        "II": 3690,
        "Ġoutput": 3691,
        "Ġfront": 3692,
        "Ġroad": 3693,
        "rian": 3694,
        "Ġoperations": 3695,
        "liament": 3696,
        "itzerland": 3697,
        "ĠKenn": 3698,
        "ĠAngeles": 3699,
        "ĠDistrict": 3700,
        "ĠIntern": 3701,
        "Wh": 3702,
        "Ġhumans": 3703,
        "CC": 3704,
        "ĠBud": 3705,
        "Ġconstruction": 3706,
        "Ġneural": 3707,
        "Ġdou": 3708,
        "Ġdecision": 3709,
        "alled": 3710,
        "Ġdivision": 3711,
        "icip": 3712,
        "change": 3713,
        "Ġhelped": 3714,
        "Ġintended": 3715,
        "aval": 3716,
        "Ġhimself": 3717,
        "Ar": 3718,
        "omic": 3719,
        "flict": 3720,
        "ĠZealand": 3721,
        "appen": 3722,
        "Ġintelligence": 3723,
        "24": 3724,
        "ato": 3725,
        "Ġbur": 3726,
        "Ġcontains": 3727,
        "ĠGar": 3728,
        "Ġholid": 3729,
        "jpg": 3730,
        "imb": 3731,
        "ĠAut": 3732,
        "Ġvice": 3733,
        "Ġseparate": 3734,
        "rought": 3735,
        "ĠPlease": 3736,
        "Ġens": 3737,
        "Ġability": 3738,
        "Ġess": 3739,
        "ĠGeorg": 3740,
        "Ġpredict": 3741,
        "Ġgeneration": 3742,
        "ĠArch": 3743,
        "onald": 3744,
        "ĠMoon": 3745,
        "Ġanimals": 3746,
        "Ġwood": 3747,
        "ĠSummer": 3748,
        "ĠTex": 3749,
        "ĠNad": 3750,
        "Ġstudies": 3751,
        "largest": 3752,
        "Ġmeet": 3753,
        "Ġresponsible": 3754,
        "Ġcultural": 3755,
        "Ġchart": 3756,
        "Ġtrack": 3757,
        "Ġbattle": 3758,
        "Ġ1993": 3759,
        "ava": 3760,
        "ky": 3761,
        "Ġcollect": 3762,
        "iger": 3763,
        "Ġstudied": 3764,
        "ĠMiss": 3765,
        "itors": 3766,
        "Ġattended": 3767,
        "ĠOffice": 3768,
        "ĠStreet": 3769,
        "ĠChurch": 3770,
        "Ġalways": 3771,
        "Ġobtain": 3772,
        "ĠMartin": 3773,
        "ĠValley": 3774,
        "Ġdiscovered": 3775,
        "oo": 3776,
        "Ġcenturies": 3777,
        "ĠGovern": 3778,
        "As": 3779,
        "Ġacquired": 3780,
        "ĠDivision": 3781,
        "atform": 3782,
        "Ġexcept": 3783,
        "Ġinstit": 3784,
        "Ġprogress": 3785,
        "Ġadj": 3786,
        "Ġrule": 3787,
        "ockey": 3788,
        "aily": 3789,
        "ender": 3790,
        "elled": 3791,
        "Ġ1988": 3792,
        "Ġpolicy": 3793,
        "ĠCarol": 3794,
        "Ġcritical": 3795,
        "ÉĽ": 3796,
        "cies": 3797,
        "Ġcho": 3798,
        "ĠBig": 3799,
        "Ġsolid": 3800,
        "ipment": 3801,
        "ĠCro": 3802,
        "Ġstra": 3803,
        "achus": 3804,
        "Ġmakes": 3805,
        "BS": 3806,
        "ĠTV": 3807,
        "ĠDutch": 3808,
        "ĠSim": 3809,
        "aming": 3810,
        "Ġlisted": 3811,
        "ora": 3812,
        "Ġtransl": 3813,
        "stein": 3814,
        "ĠLuc": 3815,
        "enced": 3816,
        "ĠFar": 3817,
        "ansion": 3818,
        "Ġthreat": 3819,
        "olar": 3820,
        "Ġscored": 3821,
        "can": 3822,
        "Ġfav": 3823,
        "OS": 3824,
        "oid": 3825,
        "Ġphen": 3826,
        "Ġblood": 3827,
        "Ġmethods": 3828,
        "ropol": 3829,
        "pes": 3830,
        "Ġinitially": 3831,
        "Ġ1985": 3832,
        "asion": 3833,
        "Ġtrees": 3834,
        "Ġdatab": 3835,
        "ners": 3836,
        "ĠTru": 3837,
        "Ġsand": 3838,
        "Ġdead": 3839,
        "500": 3840,
        "ĠPortug": 3841,
        "ĠMac": 3842,
        "Ġlength": 3843,
        "urrent": 3844,
        "ĠJo": 3845,
        "Ġvary": 3846,
        "Ġeffic": 3847,
        "Ġwriting": 3848,
        "omm": 3849,
        "rey": 3850,
        "29": 3851,
        "ĠHenry": 3852,
        "Ġaccept": 3853,
        "ties": 3854,
        "Ġdivided": 3855,
        "onst": 3856,
        "Ġconflict": 3857,
        "Ġwinner": 3858,
        "Ġreceive": 3859,
        "eks": 3860,
        "Ġfranchise": 3861,
        "thlet": 3862,
        "67": 3863,
        "aka": 3864,
        "Ġpassed": 3865,
        "ĠBowl": 3866,
        "head": 3867,
        "Ġtoday": 3868,
        "ollowing": 3869,
        "aylor": 3870,
        "Ġvictory": 3871,
        "soft": 3872,
        "ands": 3873,
        "Ġrefers": 3874,
        "Ġaffect": 3875,
        "Ġ1940": 3876,
        "ened": 3877,
        "Ġdegree": 3878,
        "Ġconsec": 3879,
        "Ġaction": 3880,
        "ĠMassachus": 3881,
        "etts": 3882,
        "Ġblue": 3883,
        "Ġdirection": 3884,
        "ĠGames": 3885,
        "Ġ1965": 3886,
        "ĠLake": 3887,
        "Ġhistorical": 3888,
        "arters": 3889,
        "ĠWal": 3890,
        "Ġpreviously": 3891,
        "Ġborder": 3892,
        "Ġnorm": 3893,
        "Ġkilled": 3894,
        "ĠGal": 3895,
        "Ġmove": 3896,
        "run": 3897,
        "ĠEach": 3898,
        "Ġresources": 3899,
        "ĠBrown": 3900,
        "Ġindividuals": 3901,
        "Ġjud": 3902,
        "ider": 3903,
        "ĠMassachusetts": 3904,
        "Ã¨": 3905,
        "ĠHy": 3906,
        "cluding": 3907,
        "Ġbirth": 3908,
        "Ġbomb": 3909,
        "ĠFI": 3910,
        "Ġweeks": 3911,
        "28": 3912,
        "ĠMasters": 3913,
        "Ġartificial": 3914,
        "Ġmeat": 3915,
        "ĠBattle": 3916,
        "ested": 3917,
        "ĠGreen": 3918,
        "ĠPayPal": 3919,
        "crease": 3920,
        "obe": 3921,
        "26": 3922,
        "Ġwestern": 3923,
        "ĠSociety": 3924,
        "Ġet": 3925,
        "Ġindex": 3926,
        "Ġpron": 3927,
        "Ġcou": 3928,
        "Ġveh": 3929,
        "Ġstated": 3930,
        "Ġsimply": 3931,
        "ĠBell": 3932,
        "ortheast": 3933,
        "Ġimpl": 3934,
        "ĠNorthern": 3935,
        "ĠSwitzerland": 3936,
        "ked": 3937,
        "Ġarchitecture": 3938,
        "arden": 3939,
        "Ġearth": 3940,
        "men": 3941,
        "ES": 3942,
        "Ġbulleted": 3943,
        "ĠBang": 3944,
        "ĠCenter": 3945,
        "ĠTexas": 3946,
        "ully": 3947,
        "isions": 3948,
        "Ġpolitician": 3949,
        "ĠTem": 3950,
        "Ġsaw": 3951,
        "Ġproduce": 3952,
        "onn": 3953,
        "Ġindependent": 3954,
        "such": 3955,
        "Ġdark": 3956,
        "ĠRock": 3957,
        "ĠNavy": 3958,
        "Ġmaxim": 3959,
        "ĠCricket": 3960,
        "ĠKong": 3961,
        "Ġschools": 3962,
        "Ġ80": 3963,
        "rier": 3964,
        "Ġlaunch": 3965,
        "ĠBet": 3966,
        "ĠJones": 3967,
        "war": 3968,
        "Ġdistance": 3969,
        "Ġcourt": 3970,
        "Ġox": 3971,
        "Ġbiryani": 3972,
        "Ġmetal": 3973,
        "ĠFound": 3974,
        "iring": 3975,
        "Ġtrib": 3976,
        "Ġprovides": 3977,
        "Ġcontain": 3978,
        "ĠMy": 3979,
        "Ġgrand": 3980,
        "Ġusers": 3981,
        "Ġmaterials": 3982,
        "Ġequipment": 3983,
        "isher": 3984,
        "Ġpresented": 3985,
        "amm": 3986,
        "gorith": 3987,
        "Ġmoney": 3988,
        "Ġtakes": 3989,
        "Ġheat": 3990,
        "35": 3991,
        "erman": 3992,
        "Ġnick": 3993,
        "ĠServ": 3994,
        "Ġlikely": 3995,
        "Ġ1986": 3996,
        "ĠWind": 3997,
        "hel": 3998,
        "borne": 3999,
        "ĠMag": 4000,
        "bur": 4001,
        "Ġoccup": 4002,
        "ĠBritain": 4003,
        "ĠUp": 4004,
        "ĠHu": 4005,
        "Ġsnow": 4006,
        "Ġtaking": 4007,
        "Ġindependence": 4008,
        "ĠBol": 4009,
        "Ġactivity": 4010,
        "Ġeffort": 4011,
        "ĠCor": 4012,
        "Ġinh": 4013,
        "Ġdefinition": 4014,
        "39": 4015,
        "Ġspent": 4016,
        "Ġwinter": 4017,
        "gl": 4018,
        "Ġreb": 4019,
        "ecause": 4020,
        "Ġidea": 4021,
        "Ġestablish": 4022,
        "inter": 4023,
        "ĠStratoc": 4024,
        "oses": 4025,
        "ione": 4026,
        "Ġforeign": 4027,
        "Ġchampion": 4028,
        "rovers": 4029,
        "ext": 4030,
        "Ġplaced": 4031,
        "iab": 4032,
        "Ġlif": 4033,
        "Ġsummary": 4034,
        "Ġbill": 4035,
        "bing": 4036,
        "otic": 4037,
        "ĠForm": 4038,
        "Ġcontact": 4039,
        "Ġ1975": 4040,
        "Ġactivities": 4041,
        "Ġsolar": 4042,
        "ĠOrgan": 4043,
        "Ġbuildings": 4044,
        "Ġsection": 4045,
        "Ġnine": 4046,
        "Ġwhy": 4047,
        "itted": 4048,
        "ĠSenate": 4049,
        "Ġpay": 4050,
        "elt": 4051,
        "fficient": 4052,
        "ĠRoyal": 4053,
        "Ġadult": 4054,
        "ĠOlympic": 4055,
        "ĠBr": 4056,
        "Ġrecognition": 4057,
        "Ġgas": 4058,
        "Ġowned": 4059,
        "Ġparty": 4060,
        "rim": 4061,
        "ributed": 4062,
        "used": 4063,
        "Ġmarried": 4064,
        "me": 4065,
        "Ġalgorith": 4066,
        "Ġsets": 4067,
        "Ġleaves": 4068,
        "Ġsymb": 4069,
        "Ġconsider": 4070,
        "Ġhardware": 4071,
        "rief": 4072,
        "Ġadvantage": 4073,
        "Ġlink": 4074,
        "ĠMem": 4075,
        "Ġoccurs": 4076,
        "ĠJoseph": 4077,
        "Ġemployees": 4078,
        "ati": 4079,
        "Ġfiction": 4080,
        "Ġera": 4081,
        "Ġremained": 4082,
        "89": 4083,
        "Ġrecognized": 4084,
        "ĠMuseum": 4085,
        "ĠGreece": 4086,
        "Ġtennis": 4087,
        "ĠNob": 4088,
        "Ġlegal": 4089,
        "Ġjournal": 4090,
        "Ġsup": 4091,
        "earcher": 4092,
        "Ġ1977": 4093,
        "Ġnar": 4094,
        "rast": 4095
    },
    "id_to_token": {
        "0": "<bos>",
        "1": "<eos>",
        "2": "<pad>",
        "3": "<unk>",
        "4": "<mask>",
        "5": "!",
        "6": "\"",
        "7": "#",
        "8": "$",
        "9": "%",
        "10": "&",
        "11": "'",
        "12": "(",
        "13": ")",
        "14": "*",
        "15": "+",
        "16": ",",
        "17": "-",
        "18": ".",
        "19": "/",
        "20": "0",
        "21": "1",
        "22": "2",
        "23": "3",
        "24": "4",
        "25": "5",
        "26": "6",
        "27": "7",
        "28": "8",
        "29": "9",
        "30": ":",
        "31": ";",
        "32": "<",
        "33": "=",
        "34": ">",
        "35": "?",
        "36": "@",
        "37": "A",
        "38": "B",
        "39": "C",
        "40": "D",
        "41": "E",
        "42": "F",
        "43": "G",
        "44": "H",
        "45": "I",
        "46": "J",
        "47": "K",
        "48": "L",
        "49": "M",
        "50": "N",
        "51": "O",
        "52": "P",
        "53": "Q",
        "54": "R",
        "55": "S",
        "56": "T",
        "57": "U",
        "58": "V",
        "59": "W",
        "60": "X",
        "61": "Y",
        "62": "Z",
        "63": "[",
        "64": "\\",
        "65": "]",
        "66": "^",
        "67": "_",
        "68": "`",
        "69": "a",
        "70": "b",
        "71": "c",
        "72": "d",
        "73": "e",
        "74": "f",
        "75": "g",
        "76": "h",
        "77": "i",
        "78": "j",
        "79": "k",
        "80": "l",
        "81": "m",
        "82": "n",
        "83": "o",
        "84": "p",
        "85": "q",
        "86": "r",
        "87": "s",
        "88": "t",
        "89": "u",
        "90": "v",
        "91": "w",
        "92": "x",
        "93": "y",
        "94": "z",
        "95": "{",
        "96": "|",
        "97": "}",
        "98": "~",
        "99": "¡",
        "100": "¢",
        "101": "£",
        "102": "¤",
        "103": "¥",
        "104": "¦",
        "105": "§",
        "106": "¨",
        "107": "©",
        "108": "ª",
        "109": "«",
        "110": "¬",
        "111": "®",
        "112": "¯",
        "113": "°",
        "114": "±",
        "115": "²",
        "116": "³",
        "117": "´",
        "118": "µ",
        "119": "¶",
        "120": "·",
        "121": "¸",
        "122": "¹",
        "123": "º",
        "124": "»",
        "125": "¼",
        "126": "½",
        "127": "¾",
        "128": "¿",
        "129": "À",
        "130": "Á",
        "131": "Â",
        "132": "Ã",
        "133": "Ä",
        "134": "Å",
        "135": "Æ",
        "136": "Ç",
        "137": "È",
        "138": "É",
        "139": "Ê",
        "140": "Ë",
        "141": "Ì",
        "142": "Í",
        "143": "Î",
        "144": "Ï",
        "145": "Ð",
        "146": "Ñ",
        "147": "Ò",
        "148": "Ó",
        "149": "Ô",
        "150": "Õ",
        "151": "Ö",
        "152": "×",
        "153": "Ø",
        "154": "Ù",
        "155": "Ú",
        "156": "Û",
        "157": "Ü",
        "158": "Ý",
        "159": "Þ",
        "160": "ß",
        "161": "à",
        "162": "á",
        "163": "â",
        "164": "ã",
        "165": "ä",
        "166": "å",
        "167": "æ",
        "168": "ç",
        "169": "è",
        "170": "é",
        "171": "ê",
        "172": "ë",
        "173": "ì",
        "174": "í",
        "175": "î",
        "176": "ï",
        "177": "ð",
        "178": "ñ",
        "179": "ò",
        "180": "ó",
        "181": "ô",
        "182": "õ",
        "183": "ö",
        "184": "÷",
        "185": "ø",
        "186": "ù",
        "187": "ú",
        "188": "û",
        "189": "ü",
        "190": "ý",
        "191": "þ",
        "192": "ÿ",
        "193": "Ā",
        "194": "ā",
        "195": "Ă",
        "196": "ă",
        "197": "Ą",
        "198": "ą",
        "199": "Ć",
        "200": "ć",
        "201": "Ĉ",
        "202": "ĉ",
        "203": "Ċ",
        "204": "ċ",
        "205": "Č",
        "206": "č",
        "207": "Ď",
        "208": "ď",
        "209": "Đ",
        "210": "đ",
        "211": "Ē",
        "212": "ē",
        "213": "Ĕ",
        "214": "ĕ",
        "215": "Ė",
        "216": "ė",
        "217": "Ę",
        "218": "ę",
        "219": "Ě",
        "220": "ě",
        "221": "Ĝ",
        "222": "ĝ",
        "223": "Ğ",
        "224": "ğ",
        "225": "Ġ",
        "226": "ġ",
        "227": "Ģ",
        "228": "ģ",
        "229": "Ĥ",
        "230": "ĥ",
        "231": "Ħ",
        "232": "ħ",
        "233": "Ĩ",
        "234": "ĩ",
        "235": "Ī",
        "236": "ī",
        "237": "Ĭ",
        "238": "ĭ",
        "239": "Į",
        "240": "į",
        "241": "İ",
        "242": "ı",
        "243": "Ĳ",
        "244": "ĳ",
        "245": "Ĵ",
        "246": "ĵ",
        "247": "Ķ",
        "248": "ķ",
        "249": "ĸ",
        "250": "Ĺ",
        "251": "ĺ",
        "252": "Ļ",
        "253": "ļ",
        "254": "Ľ",
        "255": "ľ",
        "256": "Ŀ",
        "257": "ŀ",
        "258": "Ł",
        "259": "ł",
        "260": "Ń",
        "261": "Ġt",
        "262": "Ġa",
        "263": "he",
        "264": "in",
        "265": "er",
        "266": "on",
        "267": "Ġthe",
        "268": "re",
        "269": "Ġo",
        "270": "st",
        "271": "an",
        "272": "at",
        "273": "ed",
        "274": "en",
        "275": "Ġw",
        "276": "or",
        "277": "Ġc",
        "278": "it",
        "279": "Ġs",
        "280": "nd",
        "281": "ar",
        "282": "al",
        "283": "Ġin",
        "284": "Ġof",
        "285": "is",
        "286": "Ġf",
        "287": "es",
        "288": "Ġp",
        "289": "Ġb",
        "290": "Ġand",
        "291": "ic",
        "292": "ion",
        "293": "ing",
        "294": "Ġm",
        "295": "ro",
        "296": "as",
        "297": "Ġd",
        "298": "le",
        "299": "Ġto",
        "300": "ct",
        "301": "ou",
        "302": "Ġh",
        "303": "ent",
        "304": "ĠS",
        "305": "ĠT",
        "306": "ĠA",
        "307": "il",
        "308": "om",
        "309": "Ġre",
        "310": "am",
        "311": "el",
        "312": "Ġl",
        "313": "Ġ1",
        "314": "Ġe",
        "315": "Ġis",
        "316": "ĠC",
        "317": "ol",
        "318": "et",
        "319": "Ġn",
        "320": "iv",
        "321": "Ġth",
        "322": "ist",
        "323": "ra",
        "324": "ch",
        "325": "ĠM",
        "326": "ation",
        "327": "ur",
        "328": "ĠI",
        "329": "ly",
        "330": "id",
        "331": "ce",
        "332": "Ġg",
        "333": "im",
        "334": "Ġas",
        "335": "ĠB",
        "336": "us",
        "337": "ig",
        "338": "Ġon",
        "339": "Ġfor",
        "340": "Ġ(",
        "341": "ĠThe",
        "342": "Ġwas",
        "343": "ir",
        "344": "ow",
        "345": "Ġbe",
        "346": "Ġ2",
        "347": "ers",
        "348": "ad",
        "349": "ĠP",
        "350": "ut",
        "351": "ĠH",
        "352": "ot",
        "353": "ay",
        "354": "ul",
        "355": "ith",
        "356": "ĠW",
        "357": "ant",
        "358": "ru",
        "359": "Ġst",
        "360": "ge",
        "361": "ĠG",
        "362": "Ġwith",
        "363": "Ġ19",
        "364": "ss",
        "365": "Ġby",
        "366": "em",
        "367": "ĠF",
        "368": "Ġwh",
        "369": "th",
        "370": "ction",
        "371": "her",
        "372": "ĠR",
        "373": "ĠN",
        "374": "Ġ20",
        "375": "Ġan",
        "376": "and",
        "377": "ĠD",
        "378": "un",
        "379": "rom",
        "380": "Ġcon",
        "381": "ĠE",
        "382": "ĠL",
        "383": "ver",
        "384": "Ġal",
        "385": "ter",
        "386": "um",
        "387": "'s",
        "388": "Ġcom",
        "389": "Ġpro",
        "390": "Ġde",
        "391": "ies",
        "392": "Ġthat",
        "393": "if",
        "394": "Ġor",
        "395": "Ġare",
        "396": "od",
        "397": "op",
        "398": "Ġat",
        "399": "Ġv",
        "400": "Ġit",
        "401": "ĠJ",
        "402": "ac",
        "403": "ity",
        "404": "ate",
        "405": "Ġfrom",
        "406": "In",
        "407": "ain",
        "408": "os",
        "409": "ia",
        "410": "oc",
        "411": "av",
        "412": "Ġse",
        "413": "Ġhe",
        "414": "ser",
        "415": "ĠU",
        "416": "stru",
        "417": "ab",
        "418": "ld",
        "419": "Ġsu",
        "420": "pe",
        "421": "ill",
        "422": "ri",
        "423": "ore",
        "424": "qu",
        "425": "struction",
        "426": "all",
        "427": "ud",
        "428": "ich",
        "429": "ess",
        "430": "ĠO",
        "431": "est",
        "432": "art",
        "433": "Ġex",
        "434": "Ġ\"",
        "435": "ber",
        "436": "ive",
        "437": "ag",
        "438": "istant",
        "439": "ated",
        "440": "Instruction",
        "441": "Ass",
        "442": "User",
        "443": "Assistant",
        "444": "ard",
        "445": "ure",
        "446": "nt",
        "447": "igh",
        "448": "ort",
        "449": "ial",
        "450": "ast",
        "451": "ap",
        "452": "ment",
        "453": "ian",
        "454": "00",
        "455": "ak",
        "456": "ear",
        "457": "Ġpl",
        "458": "ĠIn",
        "459": "ost",
        "460": "ame",
        "461": "ical",
        "462": "ĠK",
        "463": "Ġch",
        "464": "Ġk",
        "465": "end",
        "466": "Ġhis",
        "467": "ip",
        "468": "âĢ",
        "469": "Ġcomp",
        "470": "ran",
        "471": "ĠSt",
        "472": "og",
        "473": "Ġwhich",
        "474": "ell",
        "475": "du",
        "476": "se",
        "477": "Ġus",
        "478": "mer",
        "479": "up",
        "480": "our",
        "481": "cl",
        "482": "Ġte",
        "483": "Ġwor",
        "484": "ew",
        "485": "ire",
        "486": "Ġle",
        "487": "age",
        "488": "ov",
        "489": "ary",
        "490": "ine",
        "491": "ong",
        "492": "Ġy",
        "493": "pl",
        "494": "ric",
        "495": "irst",
        "496": "so",
        "497": "und",
        "498": "gh",
        "499": "ther",
        "500": "pt",
        "501": "Ġpre",
        "502": "ub",
        "503": "Ġhas",
        "504": "ĠIt",
        "505": "Ġ201",
        "506": "iz",
        "507": "are",
        "508": "ight",
        "509": "),",
        "510": "ish",
        "511": "Ġfirst",
        "512": "ere",
        "513": "ĠCh",
        "514": "ass",
        "515": "ord",
        "516": "ions",
        "517": "ect",
        "518": "ĠUn",
        "519": "ave",
        "520": "any",
        "521": "ide",
        "522": "ust",
        "523": "Ġwhe",
        "524": "ates",
        "525": "ome",
        "526": "ount",
        "527": "per",
        "528": "ous",
        "529": "ult",
        "530": "ry",
        "531": "cc",
        "532": "out",
        "533": "Ġab",
        "534": "Ġsh",
        "535": "Ġcont",
        "536": "Ġwere",
        "537": "Ġint",
        "538": "Ġun",
        "539": "ue",
        "540": "Ġits",
        "541": "ks",
        "542": "fer",
        "543": "pp",
        "544": "âĢĵ",
        "545": "Ġalso",
        "546": "ence",
        "547": "rit",
        "548": "ĠV",
        "549": "own",
        "550": "ff",
        "551": "Ġres",
        "552": "ie",
        "553": "ĠHe",
        "554": "Ġr",
        "555": "Âł",
        "556": "Ġcl",
        "557": "ach",
        "558": "ally",
        "559": "clud",
        "560": "ign",
        "561": "ater",
        "562": "Ġar",
        "563": "lect",
        "564": "Ġhave",
        "565": "con",
        "566": "ations",
        "567": "Ġad",
        "568": "ime",
        "569": "Ġone",
        "570": "Ġro",
        "571": "ph",
        "572": "Ġen",
        "573": "Ġnot",
        "574": "ited",
        "575": "Ġyear",
        "576": "Ġsp",
        "577": "act",
        "578": "ang",
        "579": "Ġtheir",
        "580": "The",
        "581": "Ġtra",
        "582": "ory",
        "583": "Ġser",
        "584": "Ġinclud",
        "585": "Ġplay",
        "586": "ack",
        "587": "ition",
        "588": "vel",
        "589": "ound",
        "590": "ational",
        "591": "Ġcan",
        "592": "Ġ200",
        "593": "Ġper",
        "594": "orm",
        "595": "low",
        "596": "Ġpart",
        "597": "ĠWh",
        "598": "Ġ3",
        "599": "Ġmost",
        "600": "ree",
        "601": "Ġtw",
        "602": "Ġbec",
        "603": "fter",
        "604": "ep",
        "605": "Ġ18",
        "606": "ased",
        "607": "amp",
        "608": "Ġother",
        "609": "ely",
        "610": "Ġthis",
        "611": "Ġrec",
        "612": "land",
        "613": "meric",
        "614": "ice",
        "615": ").",
        "616": "ok",
        "617": "hed",
        "618": "Ġra",
        "619": "orn",
        "620": "Ġcomm",
        "621": "ĠTh",
        "622": "Ġdis",
        "623": "ile",
        "624": "xt",
        "625": "ced",
        "626": "Ġwho",
        "627": "ens",
        "628": "ib",
        "629": "erm",
        "630": "ey",
        "631": "les",
        "632": "ark",
        "633": "ĠAmeric",
        "634": "Ġsc",
        "635": "Ġkn",
        "636": "Ġim",
        "637": "ik",
        "638": "Ġj",
        "639": "we",
        "640": "20",
        "641": "ĠInd",
        "642": "ĠAl",
        "643": "ern",
        "644": "Ġbut",
        "645": "Ġme",
        "646": "Ġbeen",
        "647": "Ġsuch",
        "648": "uring",
        "649": "over",
        "650": "Ġover",
        "651": "ob",
        "652": "ace",
        "653": "Ġtwo",
        "654": "ugh",
        "655": "Ġne",
        "656": "Ġhad",
        "657": "int",
        "658": "Ġsy",
        "659": "ood",
        "660": "ase",
        "661": "res",
        "662": "ors",
        "663": "vent",
        "664": "ĠY",
        "665": "aw",
        "666": "Ġall",
        "667": "Ġdes",
        "668": "ng",
        "669": "Ġspe",
        "670": "ubl",
        "671": "ces",
        "672": "Ġabout",
        "673": "19",
        "674": "arge",
        "675": "ĠUnited",
        "676": "able",
        "677": "Ġform",
        "678": "ance",
        "679": "old",
        "680": "ied",
        "681": "ĠSe",
        "682": "Ġ199",
        "683": "form",
        "684": "Ġprodu",
        "685": "ward",
        "686": "Ġworld",
        "687": "ivers",
        "688": "Ġag",
        "689": "illion",
        "690": "Ġthey",
        "691": "Ġused",
        "692": "ific",
        "693": "ember",
        "694": "ould",
        "695": "Ġelect",
        "696": "ning",
        "697": "one",
        "698": "Ġafter",
        "699": "Ġcons",
        "700": "gan",
        "701": "Ġpop",
        "702": "als",
        "703": "Ġknown",
        "704": "ons",
        "705": "ics",
        "706": "Ġmore",
        "707": "Ġcent",
        "708": "Ġreg",
        "709": "Ġgro",
        "710": "Ġwhen",
        "711": "ident",
        "712": "Ġinto",
        "713": "te",
        "714": "Ġtime",
        "715": "ite",
        "716": "Ġear",
        "717": "ind",
        "718": "tern",
        "719": "ild",
        "720": "red",
        "721": "Ġmod",
        "722": "Ġ4",
        "723": "olog",
        "724": "port",
        "725": "Ġco",
        "726": "ating",
        "727": "stem",
        "728": "ade",
        "729": "Ġbet",
        "730": "ĠMar",
        "731": "ular",
        "732": "hip",
        "733": "ft",
        "734": "ener",
        "735": "ck",
        "736": "ose",
        "737": "rib",
        "738": "ĠAmerican",
        "739": "Ġcount",
        "740": "Ġatt",
        "741": "Ġwe",
        "742": "ved",
        "743": "oy",
        "744": "Ġpo",
        "745": "ail",
        "746": "Ġout",
        "747": "ĠStates",
        "748": "rough",
        "749": "wn",
        "750": "ween",
        "751": "Ġ198",
        "752": "Ġcol",
        "753": "ans",
        "754": "Ġthem",
        "755": "ature",
        "756": "Ġmany",
        "757": "ames",
        "758": "Ġoff",
        "759": "Ġlarge",
        "760": "ress",
        "761": "ĠAr",
        "762": "Ġ5",
        "763": "aus",
        "764": "Ġpe",
        "765": "ract",
        "766": "iven",
        "767": "ath",
        "768": "ict",
        "769": "ron",
        "770": "ough",
        "771": "Ġyears",
        "772": "Ġteam",
        "773": "Ġ202",
        "774": "Ġinc",
        "775": "cial",
        "776": "ve",
        "777": "Ġqu",
        "778": "velop",
        "779": "ents",
        "780": "raph",
        "781": "ren",
        "782": "ug",
        "783": "urn",
        "784": "ool",
        "785": "Ġbetween",
        "786": "Ġher",
        "787": "outh",
        "788": "io",
        "789": "Ġup",
        "790": "ins",
        "791": "ious",
        "792": "iss",
        "793": "ities",
        "794": "let",
        "795": "Ġwork",
        "796": "Ġfin",
        "797": "Ġloc",
        "798": "Ġfound",
        "799": "Ġthan",
        "800": "ick",
        "801": "ten",
        "802": "Ġwhere",
        "803": "Ġact",
        "804": "Ġpar",
        "805": "ered",
        "806": "ĠWor",
        "807": "ilm",
        "808": "aj",
        "809": "rans",
        "810": "ral",
        "811": "ake",
        "812": "Ġsystem",
        "813": "ince",
        "814": "ven",
        "815": "hes",
        "816": "Ġsub",
        "817": "eld",
        "818": "oth",
        "819": "Ġduring",
        "820": "ĠDe",
        "821": "Ġph",
        "822": "ollow",
        "823": "Ġund",
        "824": "ural",
        "825": "Ġpr",
        "826": "ĠWhat",
        "827": "cond",
        "828": "Ġap",
        "829": "ines",
        "830": "ĠLe",
        "831": "ĠNew",
        "832": "Ġnum",
        "833": "ne",
        "834": "Ġdevelop",
        "835": "ĠRe",
        "836": "Ġsome",
        "837": "Ġdef",
        "838": "Ġpubl",
        "839": "ason",
        "840": "ata",
        "841": "Ġpres",
        "842": "ism",
        "843": "Ġcre",
        "844": "orth",
        "845": "Ġman",
        "846": "Ġso",
        "847": "iet",
        "848": "ars",
        "849": "cess",
        "850": "ished",
        "851": "Ġ197",
        "852": "Ġam",
        "853": "Ġrel",
        "854": "ĠAs",
        "855": "ject",
        "856": "Ġthrough",
        "857": "ings",
        "858": "000",
        "859": "ower",
        "860": "att",
        "861": "ĠWorld",
        "862": "ily",
        "863": "man",
        "864": "ury",
        "865": "Ġonly",
        "866": "Ġfe",
        "867": "Ġ196",
        "868": "Ġ6",
        "869": "Ġpol",
        "870": "pen",
        "871": "its",
        "872": "Ġacc",
        "873": "ined",
        "874": "ual",
        "875": "Ġunder",
        "876": "ond",
        "877": "tain",
        "878": "ative",
        "879": "Ġtrans",
        "880": "Ġass",
        "881": "Ġcall",
        "882": "chool",
        "883": "oh",
        "884": "ys",
        "885": "Ġnew",
        "886": "Ġprov",
        "887": "ram",
        "888": "ays",
        "889": "Ġfl",
        "890": "Ġvar",
        "891": "ise",
        "892": "Ġcap",
        "893": "Ġind",
        "894": "ix",
        "895": "Ġmillion",
        "896": "Ġapp",
        "897": "Ġac",
        "898": "Ġrecord",
        "899": "ople",
        "900": "ball",
        "901": "Ġart",
        "902": "ized",
        "903": "Ġgener",
        "904": "Ġend",
        "905": "Ġru",
        "906": "Ġbecame",
        "907": "Ġinv",
        "908": "uro",
        "909": "Ġfollow",
        "910": "Ġfour",
        "911": "Ġmade",
        "912": "Ġsecond",
        "913": "Ġdo",
        "914": "round",
        "915": "Ġtext",
        "916": "Ġpass",
        "917": "ient",
        "918": "Ġwhat",
        "919": "ĠSh",
        "920": "Ġwell",
        "921": "Ġdif",
        "922": "hen",
        "923": "Ġbl",
        "924": "Ġincluding",
        "925": "angu",
        "926": "ically",
        "927": "ield",
        "928": "Ġmain",
        "929": "ĠThis",
        "930": "ock",
        "931": "Ġmet",
        "932": "ĠEng",
        "933": "uc",
        "934": "reat",
        "935": "dition",
        "936": "Ġfilm",
        "937": "Ġthree",
        "938": "ork",
        "939": "Ġbu",
        "940": "Ġbo",
        "941": "ĠCom",
        "942": "Ġhist",
        "943": "Ġsing",
        "944": "oun",
        "945": "ĠSp",
        "946": "Ġmov",
        "947": "Ġrefer",
        "948": "ah",
        "949": "Ġwon",
        "950": "Ġgame",
        "951": "iversity",
        "952": "Ġdist",
        "953": "Ġrele",
        "954": "led",
        "955": "Ġob",
        "956": "fore",
        "957": "Ġbeing",
        "958": "igin",
        "959": "ution",
        "960": "Ġset",
        "961": "Ġext",
        "962": "Ġmus",
        "963": "Ġret",
        "964": "Ġcalled",
        "965": "Ġem",
        "966": "arg",
        "967": "Ġuse",
        "968": "ton",
        "969": "ĠâĢĵ",
        "970": "ike",
        "971": "Ġlangu",
        "972": "Ġ-",
        "973": "Ġdec",
        "974": "Ġinter",
        "975": "Ġmay",
        "976": "cy",
        "977": "ash",
        "978": "Ġwin",
        "979": "ĠFran",
        "980": "iver",
        "981": "enn",
        "982": "Ġty",
        "983": "Ġwould",
        "984": "Ġcur",
        "985": "ĠAn",
        "986": "Ġsur",
        "987": "Ġrem",
        "988": "Ġmodel",
        "989": "Ġlist",
        "990": "ision",
        "991": "Ġstud",
        "992": "ife",
        "993": "Ġlater",
        "994": "ments",
        "995": "Ġshe",
        "996": "ajor",
        "997": "Ġfam",
        "998": "Ġpeople",
        "999": "erson",
        "1000": "Ġseason",
        "1001": "Ġhigh",
        "1002": "ually",
        "1003": "Ġname",
        "1004": "Ġevent",
        "1005": "Ġlead",
        "1006": "Ġent",
        "1007": "Ġnumber",
        "1008": "oot",
        "1009": "\",",
        "1010": "ĠWar",
        "1011": "ĠEuro",
        "1012": "Ġthen",
        "1013": "Ġexp",
        "1014": "ries",
        "1015": "Ġhim",
        "1016": "Ġran",
        "1017": "amed",
        "1018": "ax",
        "1019": "Ġwhile",
        "1020": "\".",
        "1021": "Ġseries",
        "1022": "Ġ17",
        "1023": "Ġearly",
        "1024": "overn",
        "1025": "fl",
        "1026": "ium",
        "1027": "Ġsign",
        "1028": "ause",
        "1029": "ts",
        "1030": "Ġdata",
        "1031": "Ġspec",
        "1032": "Ġeff",
        "1033": "Ġthere",
        "1034": "Ġest",
        "1035": "Ġagain",
        "1036": "chn",
        "1037": "pr",
        "1038": "ived",
        "1039": "ĠCon",
        "1040": "Ġmon",
        "1041": "Ġstate",
        "1042": "rent",
        "1043": "ina",
        "1044": "ier",
        "1045": "Ġcompany",
        "1046": "rol",
        "1047": "gy",
        "1048": "Ġserv",
        "1049": "very",
        "1050": "Ã©",
        "1051": "Ġ195",
        "1052": "Ġsim",
        "1053": "ather",
        "1054": "Ġcity",
        "1055": "ulation",
        "1056": "Ġmat",
        "1057": "Ġorigin",
        "1058": "ology",
        "1059": "az",
        "1060": "Ġdire",
        "1061": "ever",
        "1062": "Ġprocess",
        "1063": "Ġdiffer",
        "1064": "ility",
        "1065": "ional",
        "1066": "imes",
        "1067": "ĠEurope",
        "1068": "Ġimp",
        "1069": "Ġcommon",
        "1070": "ĠHow",
        "1071": "Ġinclude",
        "1072": "Ġmajor",
        "1073": "Ġgra",
        "1074": "ĠIs",
        "1075": "ided",
        "1076": "Ġ9",
        "1077": "Ġeach",
        "1078": "Ġsm",
        "1079": "ired",
        "1080": "ining",
        "1081": "ists",
        "1082": "Ġ194",
        "1083": "Ġ8",
        "1084": "bo",
        "1085": "Ġwrit",
        "1086": "ague",
        "1087": "mp",
        "1088": "Ġsince",
        "1089": "ampions",
        "1090": "emb",
        "1091": "ober",
        "1092": "ĠIndia",
        "1093": "Ġrep",
        "1094": "ĠAt",
        "1095": "Ġdesign",
        "1096": "ex",
        "1097": "ĠCol",
        "1098": "ful",
        "1099": "Ġcentury",
        "1100": "ĠGiven",
        "1101": "Ġarea",
        "1102": "Ġbased",
        "1103": "Ġboth",
        "1104": "ank",
        "1105": "Ġoften",
        "1106": "ĠZ",
        "1107": "air",
        "1108": "ĠPro",
        "1109": "ital",
        "1110": "ĠWest",
        "1111": "lish",
        "1112": "Ġrece",
        "1113": "ĠUniversity",
        "1114": "Ġlanguage",
        "1115": "Ġ7",
        "1116": "ible",
        "1117": "Ġgroup",
        "1118": "conom",
        "1119": "ee",
        "1120": "Ġhow",
        "1121": "ures",
        "1122": "Ġany",
        "1123": "Ġ10",
        "1124": "ĠCl",
        "1125": "Ġaut",
        "1126": "uch",
        "1127": "Ġmed",
        "1128": "ĠSc",
        "1129": "Ġbefore",
        "1130": "ants",
        "1131": "Ġsever",
        "1132": "ised",
        "1133": "aking",
        "1134": "ird",
        "1135": "Ġlargest",
        "1136": "ner",
        "1137": "Ġmil",
        "1138": "Ġmark",
        "1139": "Ġhum",
        "1140": "stit",
        "1141": "omet",
        "1142": "til",
        "1143": "ted",
        "1144": "ai",
        "1145": "bum",
        "1146": "Ġstart",
        "1147": "rand",
        "1148": "ble",
        "1149": "ĠSw",
        "1150": "Ġpoint",
        "1151": "Ġpower",
        "1152": "agraph",
        "1153": "hest",
        "1154": "ĠShe",
        "1155": "ĠAd",
        "1156": "Ġdisc",
        "1157": "Ġchar",
        "1158": "Ġresult",
        "1159": "Ġthese",
        "1160": "Ġown",
        "1161": "Ġparagraph",
        "1162": "ĠNational",
        "1163": "ĠJoh",
        "1164": "ĠGerm",
        "1165": "Ġsupp",
        "1166": "Ġplayed",
        "1167": "oci",
        "1168": "eg",
        "1169": "ccess",
        "1170": "cept",
        "1171": "Ġ16",
        "1172": "Ġoper",
        "1173": "ets",
        "1174": "Ġterm",
        "1175": "Ġdid",
        "1176": "ĠCan",
        "1177": "Ġoffic",
        "1178": "ouse",
        "1179": "Ġuntil",
        "1180": "ĠAf",
        "1181": "eb",
        "1182": "rop",
        "1183": "ĠPl",
        "1184": "Ġtechn",
        "1185": "ĠIndian",
        "1186": "Ġlong",
        "1187": "other",
        "1188": "Ġcountry",
        "1189": "ternational",
        "1190": "ĠBrit",
        "1191": "Ġ15",
        "1192": "Ġdesc",
        "1193": "Ġbel",
        "1194": "ty",
        "1195": "une",
        "1196": "Ġrun",
        "1197": "ĠAust",
        "1198": "ec",
        "1199": "Ġgovern",
        "1200": "18",
        "1201": "Ġcar",
        "1202": "Ġdirect",
        "1203": "Ġgre",
        "1204": "Ġno",
        "1205": "Ġpartic",
        "1206": "Ġperform",
        "1207": "Ġsol",
        "1208": "ĠSouth",
        "1209": "Ġprom",
        "1210": "der",
        "1211": "Ġorgan",
        "1212": "Ġaround",
        "1213": "ting",
        "1214": "Ġocc",
        "1215": "Ġalbum",
        "1216": "Ġgu",
        "1217": "orp",
        "1218": "Ġelectric",
        "1219": "Ġnamed",
        "1220": "ĠPh",
        "1221": "Ġincre",
        "1222": "Ġbro",
        "1223": "Ġele",
        "1224": "ley",
        "1225": "Ġpublic",
        "1226": "Ġprog",
        "1227": "ĠThey",
        "1228": "Ġwater",
        "1229": "ross",
        "1230": "Ġcompet",
        "1231": "Ġbre",
        "1232": "eder",
        "1233": "uss",
        "1234": "ĠFor",
        "1235": "Ġwill",
        "1236": "pect",
        "1237": "Ġgo",
        "1238": "rid",
        "1239": "ues",
        "1240": "Ġcare",
        "1241": "ĠNorth",
        "1242": "ĠJohn",
        "1243": "ene",
        "1244": "iam",
        "1245": "Ġschool",
        "1246": "ull",
        "1247": "Ġlaw",
        "1248": "Ġcharact",
        "1249": "Ġcontin",
        "1250": "ĠUS",
        "1251": "Ġdifferent",
        "1252": "inc",
        "1253": "Ġval",
        "1254": "Ġseveral",
        "1255": "Ġhistory",
        "1256": "way",
        "1257": "inist",
        "1258": "Ġbegan",
        "1259": "the",
        "1260": "ared",
        "1261": "Ġtyp",
        "1262": "Ġpopular",
        "1263": "ages",
        "1264": "ale",
        "1265": "Ġeng",
        "1266": "Ġann",
        "1267": "Ġback",
        "1268": "Ġ193",
        "1269": "eng",
        "1270": "Ġmult",
        "1271": "Ġsuccess",
        "1272": "Ġcurrent",
        "1273": "Ġwar",
        "1274": "Ġeconom",
        "1275": "Ġgl",
        "1276": "Ġ$",
        "1277": "ampionship",
        "1278": "ctions",
        "1279": "Ġreleased",
        "1280": "ĠKing",
        "1281": "Ġborn",
        "1282": "Ġagainst",
        "1283": "Ġappe",
        "1284": "ices",
        "1285": "osed",
        "1286": "ËĪ",
        "1287": "Ġmusic",
        "1288": "Ġsame",
        "1289": "iod",
        "1290": "Ġconsid",
        "1291": "wards",
        "1292": "Ġhig",
        "1293": "apan",
        "1294": "Ġpolit",
        "1295": "atic",
        "1296": "ket",
        "1297": "Ġtit",
        "1298": "Ġed",
        "1299": "to",
        "1300": "elf",
        "1301": "ience",
        "1302": "iew",
        "1303": "ris",
        "1304": "co",
        "1305": "Ġprof",
        "1306": "ĠAfric",
        "1307": "son",
        "1308": "ink",
        "1309": "ified",
        "1310": "Ġche",
        "1311": "ann",
        "1312": "Ġpopulation",
        "1313": "Ġeffect",
        "1314": "ute",
        "1315": "ll",
        "1316": "Ġdep",
        "1317": "Ġfollowing",
        "1318": "Ġsmall",
        "1319": "ootball",
        "1320": "Ġfield",
        "1321": "Ġcontrol",
        "1322": "atural",
        "1323": "ĠAll",
        "1324": "ĠBl",
        "1325": "ization",
        "1326": "Ġpresident",
        "1327": "ively",
        "1328": "Ġperson",
        "1329": "Ġcult",
        "1330": "ugust",
        "1331": "ried",
        "1332": "ware",
        "1333": "Ġ12",
        "1334": "af",
        "1335": "ights",
        "1336": "ended",
        "1337": "cer",
        "1338": "pril",
        "1339": "Ġappro",
        "1340": "Ġusing",
        "1341": "ĠCar",
        "1342": "par",
        "1343": "gest",
        "1344": "Ġfive",
        "1345": "Ġnet",
        "1346": "ives",
        "1347": "ains",
        "1348": "Ġled",
        "1349": "iqu",
        "1350": "ases",
        "1351": "Ġ2022",
        "1352": "ize",
        "1353": "ĠEast",
        "1354": "Ġsoc",
        "1355": "Ġclass",
        "1356": "iving",
        "1357": "Ġexpl",
        "1358": "Ġbest",
        "1359": "ĠQ",
        "1360": "ĠBe",
        "1361": "Ġsk",
        "1362": "Ġsingle",
        "1363": "ĠMay",
        "1364": "200",
        "1365": "ĠJapan",
        "1366": "Ġlo",
        "1367": "ement",
        "1368": ".\"",
        "1369": "Ġtop",
        "1370": "Ġcountries",
        "1371": "Ġlife",
        "1372": "au",
        "1373": "Ġsum",
        "1374": "Ġopen",
        "1375": "ĠEnglish",
        "1376": "ĠMus",
        "1377": "ately",
        "1378": "agn",
        "1379": "ales",
        "1380": "ĠApril",
        "1381": "ling",
        "1382": "ptember",
        "1383": "10",
        "1384": "ring",
        "1385": "oman",
        "1386": "gen",
        "1387": "Ġfeature",
        "1388": "ĠJan",
        "1389": "Ġformer",
        "1390": "Ġbecause",
        "1391": "Ġrequ",
        "1392": "ĠMarch",
        "1393": "ality",
        "1394": "Ġhead",
        "1395": "Ġpassage",
        "1396": "sc",
        "1397": "Ġav",
        "1398": "Ġmember",
        "1399": "ĠNov",
        "1400": "Ġfamily",
        "1401": "Ġnear",
        "1402": "sh",
        "1403": "Ġnational",
        "1404": "Ġ14",
        "1405": "ĠGe",
        "1406": "Ġchild",
        "1407": "alth",
        "1408": "itions",
        "1409": "ored",
        "1410": "Ġperiod",
        "1411": "Ġcomput",
        "1412": "Ġdr",
        "1413": "ĠHis",
        "1414": "Ġmin",
        "1415": "ĠAfter",
        "1416": "Ġadv",
        "1417": "ially",
        "1418": "Ġair",
        "1419": "ĠAm",
        "1420": "ĠFrom",
        "1421": "Ġbuild",
        "1422": "ĠBritish",
        "1423": "omin",
        "1424": "ĠAugust",
        "1425": "ms",
        "1426": "iness",
        "1427": "Ġlast",
        "1428": "Ġlocated",
        "1429": "ctober",
        "1430": "Ġdue",
        "1431": "born",
        "1432": "Ġcommun",
        "1433": "Ġinfl",
        "1434": "Ġindu",
        "1435": "Ġequ",
        "1436": "ĠLeague",
        "1437": "Ġdet",
        "1438": "Ġ2020",
        "1439": "rodu",
        "1440": "ploy",
        "1441": "ĠCal",
        "1442": "Ġpur",
        "1443": "de",
        "1444": "ivil",
        "1445": "iter",
        "1446": "Ġ13",
        "1447": "uly",
        "1448": "Ġsupport",
        "1449": "cem",
        "1450": "rench",
        "1451": "Ġpos",
        "1452": "vol",
        "1453": "Ġhome",
        "1454": "Ġhuman",
        "1455": "Ġbus",
        "1456": "ĠAustral",
        "1457": "Ġstand",
        "1458": "ves",
        "1459": "âĢĶ",
        "1460": "Ġland",
        "1461": "Ġkm",
        "1462": "Ġdescrib",
        "1463": "lands",
        "1464": "Ġold",
        "1465": "iety",
        "1466": "aid",
        "1467": "Ġallow",
        "1468": "ĠHar",
        "1469": "Ġprogram",
        "1470": "Ġref",
        "1471": "ering",
        "1472": "Ġstre",
        "1473": "Ġalong",
        "1474": "Ġ2021",
        "1475": "Ġneed",
        "1476": "Ġgames",
        "1477": "Ġthird",
        "1478": "by",
        "1479": "Ġproduct",
        "1480": "Ġestab",
        "1481": "Ġprofess",
        "1482": "cember",
        "1483": "Ġwithin",
        "1484": "aving",
        "1485": "Ġjo",
        "1486": "com",
        "1487": "ats",
        "1488": "ĠSeptember",
        "1489": "ĠOctober",
        "1490": "ĠCent",
        "1491": "though",
        "1492": "Ġshow",
        "1493": "here",
        "1494": "Ġsong",
        "1495": "ĠOn",
        "1496": "tal",
        "1497": "Ġcareer",
        "1498": "ness",
        "1499": "cing",
        "1500": "Ġtas",
        "1501": "gin",
        "1502": "side",
        "1503": "Ġyou",
        "1504": "uary",
        "1505": "ĠAmerica",
        "1506": "Ġbas",
        "1507": "Ġmarket",
        "1508": "ody",
        "1509": "attle",
        "1510": "Ġplayer",
        "1511": "ani",
        "1512": "ublic",
        "1513": "ple",
        "1514": "ament",
        "1515": "work",
        "1516": "Ġwid",
        "1517": "ĠJune",
        "1518": "Ġgiven",
        "1519": "Ġreference",
        "1520": "Ġage",
        "1521": "ĠMan",
        "1522": "ĠII",
        "1523": "ove",
        "1524": "ording",
        "1525": "Ġfinal",
        "1526": "yd",
        "1527": "ĠComm",
        "1528": "ese",
        "1529": "cent",
        "1530": "omen",
        "1531": "Ġcharacter",
        "1532": "Ġgovernment",
        "1533": "Ġword",
        "1534": "ane",
        "1535": "Ġarch",
        "1536": "ilt",
        "1537": "ĠPar",
        "1538": "ches",
        "1539": "Ġbillion",
        "1540": "Ġresp",
        "1541": "Ġener",
        "1542": "ĠYork",
        "1543": "Ġlear",
        "1544": "ĠNovember",
        "1545": "ration",
        "1546": "ĠDecember",
        "1547": "Ġappl",
        "1548": "Ġheld",
        "1549": "Ġengine",
        "1550": "ange",
        "1551": "els",
        "1552": "Ġhel",
        "1553": "Ġtraining",
        "1554": "vers",
        "1555": "ger",
        "1556": "ke",
        "1557": "ogn",
        "1558": "Ġopp",
        "1559": "ĠGu",
        "1560": "ently",
        "1561": "orpor",
        "1562": "ek",
        "1563": "ĠCanad",
        "1564": "Ġlate",
        "1565": "formation",
        "1566": "Ġmar",
        "1567": "ĠJuly",
        "1568": "Ġnon",
        "1569": "ories",
        "1570": "lo",
        "1571": "ged",
        "1572": "ograph",
        "1573": "Ġserved",
        "1574": "ĠHowever",
        "1575": "Ġnatural",
        "1576": "ival",
        "1577": "ĠEar",
        "1578": "hor",
        "1579": "resent",
        "1580": "ditional",
        "1581": "Ġsec",
        "1582": "ued",
        "1583": "Ġmemb",
        "1584": "Ġvide",
        "1585": "my",
        "1586": "Ġsport",
        "1587": "ĠAnd",
        "1588": "ze",
        "1589": "Ġlevel",
        "1590": "Ġla",
        "1591": "ample",
        "1592": "Ġfun",
        "1593": "lege",
        "1594": "Ġdeveloped",
        "1595": "ĠJanuary",
        "1596": "Ġplace",
        "1597": "Ġvis",
        "1598": "Ġcreated",
        "1599": "sp",
        "1600": "17",
        "1601": "Ġimport",
        "1602": "aly",
        "1603": "rem",
        "1604": "Ġband",
        "1605": "ences",
        "1606": "Ġadd",
        "1607": "ĠThere",
        "1608": "read",
        "1609": "ĠSup",
        "1610": "Ġ100",
        "1611": "ĠMc",
        "1612": "ĠRep",
        "1613": "akes",
        "1614": "Ġshort",
        "1615": "lex",
        "1616": "epend",
        "1617": "ĠOr",
        "1618": "Ġphys",
        "1619": "ĠSchool",
        "1620": "Ġsour",
        "1621": "tt",
        "1622": "Ġinflu",
        "1623": "ribut",
        "1624": "Ġconsidered",
        "1625": "12",
        "1626": "Ġtele",
        "1627": "Ġnorth",
        "1628": "put",
        "1629": "Ġoccur",
        "1630": "ĠCup",
        "1631": "Ġregion",
        "1632": "Ġleg",
        "1633": "Ġprim",
        "1634": "Ġpublished",
        "1635": "Ġlike",
        "1636": "ony",
        "1637": "Ġday",
        "1638": "Ġsepar",
        "1639": "earch",
        "1640": "Ġfootball",
        "1641": "rict",
        "1642": "ĠFrench",
        "1643": "Ġter",
        "1644": "15",
        "1645": "ebru",
        "1646": "ebruary",
        "1647": "aced",
        "1648": "Ġif",
        "1649": "Ġsix",
        "1650": "Ġcrit",
        "1651": "Ġmembers",
        "1652": "Ġtem",
        "1653": "dom",
        "1654": "Ġenergy",
        "1655": "ĠWho",
        "1656": "Ġteams",
        "1657": "ĠExt",
        "1658": "ission",
        "1659": "ards",
        "1660": "ior",
        "1661": "ify",
        "1662": "Ġlight",
        "1663": "ĠCo",
        "1664": "Ġfru",
        "1665": "ĠAfrica",
        "1666": "Ġexper",
        "1667": "aim",
        "1668": "rist",
        "1669": "ĠX",
        "1670": "itary",
        "1671": "Ġstates",
        "1672": "ĠGeor",
        "1673": "ĠEd",
        "1674": "ĠAss",
        "1675": "Ġreceived",
        "1676": "Ġdevelopment",
        "1677": "Ġproduced",
        "1678": "idd",
        "1679": "Ġstr",
        "1680": "ones",
        "1681": "Ġamong",
        "1682": "Ġdown",
        "1683": "Ġsouth",
        "1684": "ĠThese",
        "1685": "of",
        "1686": "ption",
        "1687": "Ġbusiness",
        "1688": "ples",
        "1689": "Ġcer",
        "1690": "Ġhighest",
        "1691": "ney",
        "1692": "ĠPr",
        "1693": "Ġclub",
        "1694": "ained",
        "1695": "Ġcould",
        "1696": "ator",
        "1697": "aster",
        "1698": "ĠRo",
        "1699": "la",
        "1700": "day",
        "1701": "ential",
        "1702": "Ġindust",
        "1703": "Ġdoes",
        "1704": "Ġ2018",
        "1705": "itive",
        "1706": "Ġ2019",
        "1707": "ĠSer",
        "1708": "Ġmi",
        "1709": "Ġfounded",
        "1710": "Ġstru",
        "1711": "Ġmust",
        "1712": "ured",
        "1713": "Ġintrodu",
        "1714": "for",
        "1715": "Ġvarious",
        "1716": "Ġhand",
        "1717": "Ġbecome",
        "1718": "Ġinvol",
        "1719": "lished",
        "1720": "ĠCount",
        "1721": "ott",
        "1722": "Ġinst",
        "1723": "Ġtotal",
        "1724": "Ġ11",
        "1725": "ĠHer",
        "1726": "ilar",
        "1727": "Ġtell",
        "1728": "irc",
        "1729": "ĠCity",
        "1730": "Ġdiv",
        "1731": "ĠEx",
        "1732": "Ġeast",
        "1733": "Ġexample",
        "1734": "med",
        "1735": "ĠFebruary",
        "1736": "Ġusually",
        "1737": "ode",
        "1738": "Ġtimes",
        "1739": "Ġcomb",
        "1740": "Ġassoci",
        "1741": "ĠBo",
        "1742": "ÉĻ",
        "1743": "Ġreport",
        "1744": "Ġprovided",
        "1745": "Ġfact",
        "1746": "ĠWhen",
        "1747": "Ġgrow",
        "1748": "raft",
        "1749": "Ġrest",
        "1750": "Ġreturn",
        "1751": "itar",
        "1752": "ĠTe",
        "1753": "iforn",
        "1754": "Ġaward",
        "1755": "Ġmodern",
        "1756": "atter",
        "1757": "Ġsystems",
        "1758": "Ġdel",
        "1759": "vious",
        "1760": "Ġdem",
        "1761": "ĠBar",
        "1762": "Ġinvest",
        "1763": "Ġrad",
        "1764": "Ġhelp",
        "1765": "ĠSan",
        "1766": "Ġdeb",
        "1767": "11",
        "1768": "hem",
        "1769": "Ġkey",
        "1770": "ination",
        "1771": "Ġsw",
        "1772": "ĠFrance",
        "1773": "ifornia",
        "1774": "ĠYou",
        "1775": "ape",
        "1776": "ians",
        "1777": "Ġlow",
        "1778": "ĠChina",
        "1779": "arm",
        "1780": "Ġcaus",
        "1781": "Ġprot",
        "1782": "ief",
        "1783": "Ġ192",
        "1784": "yl",
        "1785": "ĠExtract",
        "1786": "ched",
        "1787": "Ġcapital",
        "1788": "Ġinformation",
        "1789": "yn",
        "1790": "Ġrecogn",
        "1791": "obal",
        "1792": "Ġcour",
        "1793": "Ġdev",
        "1794": "Ġobject",
        "1795": "ention",
        "1796": "ĠCalifornia",
        "1797": "Ġsignific",
        "1798": "Ġwest",
        "1799": "adem",
        "1800": "Ġposs",
        "1801": "acks",
        "1802": "Ġes",
        "1803": "ctor",
        "1804": "thern",
        "1805": "ounced",
        "1806": "ither",
        "1807": "lear",
        "1808": "Ġtook",
        "1809": "serv",
        "1810": "row",
        "1811": "uel",
        "1812": "most",
        "1813": "Ġi",
        "1814": "alf",
        "1815": "Ġinit",
        "1816": "Ġdays",
        "1817": "Ġpolitical",
        "1818": "ivid",
        "1819": "ency",
        "1820": "Ġbuilt",
        "1821": "Ġvery",
        "1822": "amb",
        "1823": "Ġmonth",
        "1824": "ĠEuropean",
        "1825": "Ġmuch",
        "1826": "Ġthose",
        "1827": "Ġrepresent",
        "1828": "Ġestablished",
        "1829": "Ġspecial",
        "1830": "iron",
        "1831": "ĠGree",
        "1832": "Ġident",
        "1833": "Ġsomet",
        "1834": "hod",
        "1835": "Ġcamp",
        "1836": "Ġelectr",
        "1837": "ĠMon",
        "1838": "Ġpract",
        "1839": "ĠPark",
        "1840": "Ġmilitary",
        "1841": "ense",
        "1842": "Ġoriginal",
        "1843": "ondon",
        "1844": "Ġvideo",
        "1845": "Ġmake",
        "1846": "50",
        "1847": "ean",
        "1848": "Ġreal",
        "1849": "Ġmen",
        "1850": "ĠEl",
        "1851": "Ġnow",
        "1852": "Ġevery",
        "1853": "Ġbeh",
        "1854": "Ġimportant",
        "1855": "Ġactiv",
        "1856": "Ġrace",
        "1857": "iple",
        "1858": "Ġtourn",
        "1859": "Ġ'",
        "1860": "Ġpresent",
        "1861": "tle",
        "1862": "Ġhistor",
        "1863": "Ġemploy",
        "1864": "ĠAward",
        "1865": "ler",
        "1866": "outhern",
        "1867": "Ġchang",
        "1868": "vision",
        "1869": "ĠEngland",
        "1870": "ĠLondon",
        "1871": "ote",
        "1872": "omb",
        "1873": "Ġcivil",
        "1874": "itect",
        "1875": "Ġchildren",
        "1876": "rab",
        "1877": "Ġ2017",
        "1878": "Ġproject",
        "1879": "Ġplayers",
        "1880": "ether",
        "1881": "Ġstat",
        "1882": "ama",
        "1883": "ĠWill",
        "1884": "iment",
        "1885": "Ġflow",
        "1886": "ilities",
        "1887": "oint",
        "1888": "ability",
        "1889": "ĠOne",
        "1890": "anish",
        "1891": "ges",
        "1892": "ret",
        "1893": "Ġparticular",
        "1894": "ĠFin",
        "1895": "Ġfood",
        "1896": "ington",
        "1897": "Ġinternational",
        "1898": "ides",
        "1899": "Ġspecies",
        "1900": "ĠEarth",
        "1901": "Ġsoft",
        "1902": "Ph",
        "1903": "Ġmach",
        "1904": "Ġ[",
        "1905": "Ġz",
        "1906": "alt",
        "1907": "ĠFeder",
        "1908": "Ġincluded",
        "1909": "abor",
        "1910": "inese",
        "1911": "line",
        "1912": "ensive",
        "1913": "ung",
        "1914": "Ġ30",
        "1915": "Ġ2009",
        "1916": "arch",
        "1917": "Ġsuper",
        "1918": "Ġmaking",
        "1919": "Ġgeneral",
        "1920": "ald",
        "1921": "ĠMo",
        "1922": "Ġ2010",
        "1923": "Ġside",
        "1924": "Ġsl",
        "1925": "Ġfre",
        "1926": "ĠTw",
        "1927": "ĠGermany",
        "1928": "ological",
        "1929": "Ġsimilar",
        "1930": "Ġrock",
        "1931": "Ġproduction",
        "1932": "chie",
        "1933": "Ġsocial",
        "1934": "Ġ2016",
        "1935": "play",
        "1936": "Ġclim",
        "1937": "Ġcompan",
        "1938": "Ġcomplet",
        "1939": "Ġmagn",
        "1940": "Ġ2015",
        "1941": "ĠBro",
        "1942": "ĠSun",
        "1943": "Ġ2011",
        "1944": "urity",
        "1945": "hern",
        "1946": "ĠBra",
        "1947": "ana",
        "1948": "ĠDav",
        "1949": "ends",
        "1950": "eter",
        "1951": "Ġdeath",
        "1952": "Ġprevious",
        "1953": "Ġredu",
        "1954": "ances",
        "1955": "Ġcommonly",
        "1956": "ĠGerman",
        "1957": "less",
        "1958": "ricket",
        "1959": "Ġball",
        "1960": "Ġcor",
        "1961": "16",
        "1962": "14",
        "1963": "ications",
        "1964": "ancial",
        "1965": "Ġsignificant",
        "1966": "Ġindivid",
        "1967": "Ġpost",
        "1968": "Ġhaving",
        "1969": "ef",
        "1970": "Ġproble",
        "1971": "Ġrank",
        "1972": "Ġsold",
        "1973": "Ġanother",
        "1974": "Ġvers",
        "1975": "Ġhold",
        "1976": "rat",
        "1977": "Ġorder",
        "1978": "ĠChampionship",
        "1979": "Ġmodels",
        "1980": "amples",
        "1981": "west",
        "1982": "Ġ&",
        "1983": "Ġattack",
        "1984": "ĠRuss",
        "1985": "Ġaver",
        "1986": "cted",
        "1987": "Ġdefe",
        "1988": "ma",
        "1989": "Ġaff",
        "1990": "Ġdescribed",
        "1991": "Ġlearning",
        "1992": "Ġreferred",
        "1993": "reen",
        "1994": "Ġpri",
        "1995": "Ġport",
        "1996": "Ġwritten",
        "1997": "ĠSing",
        "1998": "wide",
        "1999": "uf",
        "2000": "ams",
        "2001": "Ġpoints",
        "2002": "ocus",
        "2003": "Ġbody",
        "2004": "view",
        "2005": "Ġresearch",
        "2006": "13",
        "2007": "Ġgen",
        "2008": "volution",
        "2009": "Ġdied",
        "2010": "Ġfore",
        "2011": "Ġtest",
        "2012": "Ġappear",
        "2013": "orthern",
        "2014": "Ġproper",
        "2015": "Ġeven",
        "2016": "ending",
        "2017": "Ġbul",
        "2018": "Ġsent",
        "2019": "Ġofficial",
        "2020": "BA",
        "2021": "rap",
        "2022": "Ġthough",
        "2023": "199",
        "2024": "ĠKingdom",
        "2025": "Ġsty",
        "2026": "Ġinf",
        "2027": "Ġlocal",
        "2028": "Ġprofessional",
        "2029": "now",
        "2030": "Ġanim",
        "2031": "ĠRepublic",
        "2032": "SA",
        "2033": "Ġpat",
        "2034": "Ġmater",
        "2035": "Ġep",
        "2036": "Ġ190",
        "2037": "Ġ188",
        "2038": "Ġlim",
        "2039": "Ġconsist",
        "2040": "app",
        "2041": "istic",
        "2042": "ĠCounty",
        "2043": "Ġstill",
        "2044": "oll",
        "2045": "ison",
        "2046": "ĠSy",
        "2047": "arter",
        "2048": "Ġnetwork",
        "2049": "ĠNe",
        "2050": "Ġrole",
        "2051": "Ġearl",
        "2052": "Ġpress",
        "2053": "lymp",
        "2054": "Ġeither",
        "2055": "Ġarchitect",
        "2056": "ĠChrist",
        "2057": "Ġanal",
        "2058": "Ġcirc",
        "2059": "Ġstarted",
        "2060": "imately",
        "2061": "ĠAct",
        "2062": "Ġstruct",
        "2063": "Ġcy",
        "2064": "ĠChinese",
        "2065": "ĠOpen",
        "2066": "na",
        "2067": "Ġ2008",
        "2068": "iation",
        "2069": "Ġintroduced",
        "2070": "Ã¡",
        "2071": "Ġnext",
        "2072": "ades",
        "2073": "ĠInternational",
        "2074": "Ġcomputer",
        "2075": "30",
        "2076": "ift",
        "2077": "oms",
        "2078": "Ġ2012",
        "2079": "Ġlaun",
        "2080": "Ġexist",
        "2081": "Ġway",
        "2082": "ula",
        "2083": "Ġdiscover",
        "2084": "Ġmatch",
        "2085": "Ġsug",
        "2086": "ached",
        "2087": "ĠRiver",
        "2088": "Ġfew",
        "2089": "Ġacross",
        "2090": "Ġjust",
        "2091": "Ġmethod",
        "2092": "Ġtitle",
        "2093": "ille",
        "2094": "itation",
        "2095": "ĠSuper",
        "2096": "Ġevents",
        "2097": "ication",
        "2098": "ĠRoman",
        "2099": "Ġannounced",
        "2100": "Ġbuilding",
        "2101": "ĠPhil",
        "2102": "Ġachie",
        "2103": "icle",
        "2104": "Ġspace",
        "2105": "ĠMed",
        "2106": "era",
        "2107": "Ġline",
        "2108": "ument",
        "2109": "Ġdecl",
        "2110": "ots",
        "2111": "ires",
        "2112": "ows",
        "2113": "Ġfocus",
        "2114": "Ġservice",
        "2115": "Ġestim",
        "2116": "Ġguitar",
        "2117": "ĠWestern",
        "2118": "Ġleft",
        "2119": "ĠAsia",
        "2120": "Ġauthor",
        "2121": "Ġadm",
        "2122": "Ġ2014",
        "2123": "Ġfall",
        "2124": "Ġ2013",
        "2125": "rated",
        "2126": "Ġbi",
        "2127": "ccording",
        "2128": "Ġeconomic",
        "2129": "Ġmaterial",
        "2130": "Ġtechnology",
        "2131": "ĠGo",
        "2132": "ino",
        "2133": "amil",
        "2134": "Ġsqu",
        "2135": "ĠPol",
        "2136": "Ġvill",
        "2137": "ffic",
        "2138": "ĠAustralia",
        "2139": "Ġlarg",
        "2140": "Ġnov",
        "2141": "ĠCanada",
        "2142": "ps",
        "2143": "ĠOlymp",
        "2144": "Ġvol",
        "2145": "Ġglobal",
        "2146": "Ġmid",
        "2147": "Ġindepend",
        "2148": "ĠBC",
        "2149": "Ġterrit",
        "2150": "Ġcompanies",
        "2151": "Ġpain",
        "2152": "cle",
        "2153": "Ġconf",
        "2154": "Ġchampionship",
        "2155": "ËĲ",
        "2156": "Ġtour",
        "2157": "urch",
        "2158": "Ġmot",
        "2159": "Ġ22",
        "2160": "ĠWith",
        "2161": "lor",
        "2162": "Ġwithout",
        "2163": "ole",
        "2164": "Ġnames",
        "2165": "Ġtournament",
        "2166": "Ġfig",
        "2167": "ĠJames",
        "2168": "Ġbook",
        "2169": "Ġtasks",
        "2170": "Ġbecom",
        "2171": "sequ",
        "2172": "ĠState",
        "2173": "board",
        "2174": "ĠWilliam",
        "2175": "Ġ2007",
        "2176": "Ġwidely",
        "2177": "elling",
        "2178": "Ġsurf",
        "2179": "iddle",
        "2180": "asons",
        "2181": "ery",
        "2182": "Ġsuccessful",
        "2183": "aul",
        "2184": "mar",
        "2185": "Ġrange",
        "2186": "Ġ1990",
        "2187": "ĠBy",
        "2188": "rest",
        "2189": "ising",
        "2190": "ountain",
        "2191": "ĠPri",
        "2192": "Phone",
        "2193": "Ġhalf",
        "2194": "ray",
        "2195": "Ġscience",
        "2196": "etic",
        "2197": "Ġhard",
        "2198": "cean",
        "2199": "Ġ25",
        "2200": "Ġless",
        "2201": "Ġsit",
        "2202": "ĠNo",
        "2203": "urther",
        "2204": "heast",
        "2205": "Ġmeas",
        "2206": "ĠMich",
        "2207": "umb",
        "2208": "Th",
        "2209": "Ġbank",
        "2210": "ĠMal",
        "2211": "Ġaverage",
        "2212": "osp",
        "2213": "ridge",
        "2214": "Ġtax",
        "2215": "ka",
        "2216": "reg",
        "2217": "ĠPres",
        "2218": "Ġrepl",
        "2219": "Ġsaid",
        "2220": "Ġtypically",
        "2221": "Ġeduc",
        "2222": "Ġformed",
        "2223": "Ġred",
        "2224": "ead",
        "2225": "antic",
        "2226": "rad",
        "2227": "Ġclaim",
        "2228": "nect",
        "2229": "cher",
        "2230": "ero",
        "2231": "ube",
        "2232": "ele",
        "2233": "Ġneeded",
        "2234": "pecial",
        "2235": "arty",
        "2236": "Ġgenerally",
        "2237": "cis",
        "2238": "agement",
        "2239": "aces",
        "2240": "ae",
        "2241": "Â°",
        "2242": "Ġformat",
        "2243": "Ġavail",
        "2244": "bs",
        "2245": "Ġspecific",
        "2246": "utive",
        "2247": "ĠCollege",
        "2248": "Ġfunction",
        "2249": "Ġturn",
        "2250": "Ġdra",
        "2251": "Ġrul",
        "2252": "ica",
        "2253": "ipp",
        "2254": "ĠAc",
        "2255": "ĠGro",
        "2256": "Ġcover",
        "2257": "Ġbord",
        "2258": "Ġpot",
        "2259": "ĠComp",
        "2260": "Ġtake",
        "2261": "ĠCong",
        "2262": "Ġprop",
        "2263": "oph",
        "2264": "ham",
        "2265": "Ġel",
        "2266": "AT",
        "2267": "ĠBay",
        "2268": "Ġprinc",
        "2269": "ĠEmp",
        "2270": "Ġservices",
        "2271": "lin",
        "2272": "gg",
        "2273": "Ġplan",
        "2274": "ael",
        "2275": "ĠVal",
        "2276": "ufact",
        "2277": "Ġ1980",
        "2278": "Ġsometimes",
        "2279": "erous",
        "2280": "Ġsoftware",
        "2281": "oor",
        "2282": "ĠDis",
        "2283": "ĠRes",
        "2284": "Ġcame",
        "2285": "oe",
        "2286": "ĠUnion",
        "2287": "Ġtelevision",
        "2288": "Ġtheory",
        "2289": "Ġtre",
        "2290": "Ch",
        "2291": "Ġwomen",
        "2292": "ned",
        "2293": "Ġlay",
        "2294": "ĠGold",
        "2295": "icro",
        "2296": "alk",
        "2297": "Ġbir",
        "2298": "Ġview",
        "2299": "itz",
        "2300": "Ġfollowed",
        "2301": "ydro",
        "2302": "iber",
        "2303": "ĠAir",
        "2304": "Ġfather",
        "2305": "Ġbullet",
        "2306": "ĠBased",
        "2307": "Ġgradu",
        "2308": "ĠDuring",
        "2309": "Ġ189",
        "2310": "uck",
        "2311": "Ġleast",
        "2312": "Ġphot",
        "2313": "asing",
        "2314": "atest",
        "2315": "iest",
        "2316": "atin",
        "2317": "Ġ187",
        "2318": "ĠGeorge",
        "2319": "ably",
        "2320": "Ġhouse",
        "2321": "Ġscient",
        "2322": "ara",
        "2323": "ĠAtl",
        "2324": "Ġamount",
        "2325": "ming",
        "2326": "Ġ2006",
        "2327": "ashington",
        "2328": "ysis",
        "2329": "Ġfind",
        "2330": "Ġgive",
        "2331": "Ġlive",
        "2332": "itch",
        "2333": "ĠGrand",
        "2334": "Ġreach",
        "2335": "ours",
        "2336": "urb",
        "2337": "Ġbelow",
        "2338": "Ġft",
        "2339": "ĠiPhone",
        "2340": "ademy",
        "2341": "Ġaddition",
        "2342": "aur",
        "2343": "ta",
        "2344": "viron",
        "2345": "avy",
        "2346": "ocr",
        "2347": "Ġ186",
        "2348": "mercial",
        "2349": "ique",
        "2350": "Ġfree",
        "2351": "iol",
        "2352": "cient",
        "2353": "Ġmanufact",
        "2354": "ĠAccording",
        "2355": "Ġfinancial",
        "2356": "Ġblack",
        "2357": "ĠChar",
        "2358": "Ġhost",
        "2359": "iction",
        "2360": "Ġincludes",
        "2361": "Ġdesigned",
        "2362": "icy",
        "2363": "Ġothers",
        "2364": "ĠCentral",
        "2365": "Ġ2004",
        "2366": "Ġelectrical",
        "2367": "Ġsem",
        "2368": "Ġworldwide",
        "2369": "Ġextract",
        "2370": "esp",
        "2371": "wor",
        "2372": "Ġwide",
        "2373": "Ġareas",
        "2374": "Ġwhite",
        "2375": "Ġrelations",
        "2376": "Ġtr",
        "2377": "Ġhon",
        "2378": "ĠAssoci",
        "2379": "ĠWashington",
        "2380": "ĠSl",
        "2381": "Ġpred",
        "2382": "ĠPort",
        "2383": "acific",
        "2384": "illed",
        "2385": "ago",
        "2386": "rial",
        "2387": "Ġke",
        "2388": "Ġtown",
        "2389": ".,",
        "2390": "Ġfeatures",
        "2391": "Ġthroughout",
        "2392": "Ġassociated",
        "2393": "rice",
        "2394": "mit",
        "2395": "Ġwinning",
        "2396": "nown",
        "2397": "arily",
        "2398": "âĢĻ",
        "2399": "ush",
        "2400": "Ġcost",
        "2401": "Ġworks",
        "2402": "Ġcondu",
        "2403": "Ġiss",
        "2404": "ĠArt",
        "2405": "Ġimpro",
        "2406": "Ġtypes",
        "2407": "itud",
        "2408": "ico",
        "2409": "empt",
        "2410": "Ġmean",
        "2411": "olf",
        "2412": "Ġev",
        "2413": "oring",
        "2414": "ĠBill",
        "2415": "mon",
        "2416": "Ġconcept",
        "2417": "ĠMe",
        "2418": "ĠSum",
        "2419": "ores",
        "2420": "ĠSpanish",
        "2421": "field",
        "2422": ".[",
        "2423": "ification",
        "2424": "Ġfourth",
        "2425": "Ġconsum",
        "2426": "Ġlost",
        "2427": "Ġsym",
        "2428": "ius",
        "2429": "Ġliter",
        "2430": "ĠPresident",
        "2431": "Ġinterest",
        "2432": "ranch",
        "2433": "Ġ27",
        "2434": "apore",
        "2435": "ĠPe",
        "2436": "Ġstudy",
        "2437": "isk",
        "2438": "Ġfamous",
        "2439": "ĠGreat",
        "2440": "ference",
        "2441": "Ġforce",
        "2442": "Ġapprox",
        "2443": "ĠEmpire",
        "2444": "Ġsun",
        "2445": "Ġfund",
        "2446": "ania",
        "2447": "Ġproducts",
        "2448": "Ġge",
        "2449": "Ġtype",
        "2450": "rew",
        "2451": "St",
        "2452": "che",
        "2453": "cil",
        "2454": "Ġant",
        "2455": "writ",
        "2456": "ĠHigh",
        "2457": "time",
        "2458": "Ġknow",
        "2459": "ert",
        "2460": "Ġ2000",
        "2461": "Ġmoved",
        "2462": "Ġregard",
        "2463": "oks",
        "2464": "Ġfull",
        "2465": "rain",
        "2466": "utes",
        "2467": "ria",
        "2468": "ĠApp",
        "2469": "augh",
        "2470": "ĠThom",
        "2471": "Ġprob",
        "2472": "Ġmultiple",
        "2473": "ĠPlay",
        "2474": "sy",
        "2475": "Ġflu",
        "2476": "Ġdebut",
        "2477": "ateg",
        "2478": "Ġplaying",
        "2479": "ĠReg",
        "2480": "Ġcertain",
        "2481": "Ġincome",
        "2482": "ĠLa",
        "2483": "Ġstandard",
        "2484": "21",
        "2485": "Ġ21",
        "2486": "ini",
        "2487": "aining",
        "2488": "Ġseven",
        "2489": "Ġround",
        "2490": "ĠAwards",
        "2491": "ĠHall",
        "2492": "Ġelectron",
        "2493": "action",
        "2494": "Ġide",
        "2495": "ĠEn",
        "2496": "lement",
        "2497": "Ġvict",
        "2498": "Ġshould",
        "2499": "cord",
        "2500": "ĠFrancis",
        "2501": "uk",
        "2502": "ĠCongress",
        "2503": "stitution",
        "2504": "ĠDem",
        "2505": "Ġcomma",
        "2506": "Ġcommercial",
        "2507": "ĠHol",
        "2508": "ĠSome",
        "2509": "Ġstory",
        "2510": "ĠAng",
        "2511": "arent",
        "2512": "ĠDay",
        "2513": "Ġenviron",
        "2514": "Ġprocessing",
        "2515": "ĠVir",
        "2516": "Ġ24",
        "2517": "acy",
        "2518": "ien",
        "2519": "Ġpersonal",
        "2520": "Ġten",
        "2521": "Ġincreased",
        "2522": "Ġfail",
        "2523": "Ġvia",
        "2524": "Ġfilms",
        "2525": "aign",
        "2526": "ĠIts",
        "2527": "ways",
        "2528": "Ġsource",
        "2529": "Ġprompt",
        "2530": "ope",
        "2531": "Ġvariety",
        "2532": "Ġcond",
        "2533": "ĠSte",
        "2534": "Ġaccount",
        "2535": "ĠHouse",
        "2536": "On",
        "2537": "Ġ2005",
        "2538": "Ġestimated",
        "2539": "rote",
        "2540": "ĠEm",
        "2541": "aves",
        "2542": "ĠAcademy",
        "2543": "Ġcompon",
        "2544": "ĠItal",
        "2545": "Ġwent",
        "2546": "ishing",
        "2547": "Ġattempt",
        "2548": "Ġtemper",
        "2549": "Ġpopul",
        "2550": "hi",
        "2551": "ĠPacific",
        "2552": "Ġresults",
        "2553": "Ġposition",
        "2554": "inent",
        "2555": "ĠRober",
        "2556": "ellow",
        "2557": "Ġcat",
        "2558": "ĠAssociation",
        "2559": "Ġsummer",
        "2560": "Ġinteg",
        "2561": "Ġacqu",
        "2562": "Ġgood",
        "2563": "Ġson",
        "2564": "uclear",
        "2565": "Ġchange",
        "2566": "urg",
        "2567": "ĠSingapore",
        "2568": "Ġbar",
        "2569": "fic",
        "2570": "Ġ2023",
        "2571": "aper",
        "2572": "Ġterms",
        "2573": "Ġmy",
        "2574": "ĠCap",
        "2575": "Ġindustry",
        "2576": "Ġbelie",
        "2577": "Ġperformance",
        "2578": "Ġrespons",
        "2579": "Ġvalue",
        "2580": "Ġbegin",
        "2581": "ĠTour",
        "2582": "aged",
        "2583": "Ġkil",
        "2584": "ĠRich",
        "2585": "ĠNBA",
        "2586": "Ġfruits",
        "2587": "ads",
        "2588": "22",
        "2589": "Ġmachine",
        "2590": "ĠSoc",
        "2591": "Ġshare",
        "2592": "Ġgreat",
        "2593": "ford",
        "2594": "ÃŃ",
        "2595": "iang",
        "2596": "ĠRed",
        "2597": "Ġanalysis",
        "2598": "ĠSch",
        "2599": "Ġprovide",
        "2600": "Ġavailable",
        "2601": "Ġfac",
        "2602": "artment",
        "2603": "ĠJapanese",
        "2604": "Ġfar",
        "2605": "Ġgr",
        "2606": "Ġleader",
        "2607": "oviet",
        "2608": "lectric",
        "2609": "chan",
        "2610": "Ġfri",
        "2611": "Ġcr",
        "2612": "Ġhydro",
        "2613": "Ġfr",
        "2614": "ster",
        "2615": "FA",
        "2616": "Ġjoined",
        "2617": "Ġadminist",
        "2618": "Ġuses",
        "2619": "60",
        "2620": "Ġenc",
        "2621": "Ġ{",
        "2622": "Ġbase",
        "2623": "Ġcell",
        "2624": "uit",
        "2625": "ellig",
        "2626": "Ġtrained",
        "2627": "Ġfire",
        "2628": "aken",
        "2629": "Ġopt",
        "2630": "Ġconnect",
        "2631": "Ġalthough",
        "2632": "ĠBer",
        "2633": "Ġcentral",
        "2634": "Ġweek",
        "2635": "ĠYear",
        "2636": "inn",
        "2637": "ving",
        "2638": "Ġrights",
        "2639": "Ġleading",
        "2640": "Ġhealth",
        "2641": "Ġdog",
        "2642": "Ġ0",
        "2643": "Ġ28",
        "2644": "Ġ40",
        "2645": "wood",
        "2646": "ĠGl",
        "2647": "Ġleague",
        "2648": "eth",
        "2649": "Ġpriv",
        "2650": "ĠAI",
        "2651": "Ġmer",
        "2652": "Ġtravel",
        "2653": "Ġeight",
        "2654": "ership",
        "2655": "Ġpast",
        "2656": "Ġmass",
        "2657": "ĠMor",
        "2658": "Ġemer",
        "2659": "Ġradio",
        "2660": "wh",
        "2661": "Ġfurther",
        "2662": "Ġ29",
        "2663": "ĠIsland",
        "2664": "ĠDavid",
        "2665": "oted",
        "2666": "ĠGener",
        "2667": "Ġget",
        "2668": "ĠAb",
        "2669": "asters",
        "2670": "Ġmaintain",
        "2671": "âĢĬ",
        "2672": "He",
        "2673": "Ġoffer",
        "2674": "Ġgroups",
        "2675": "cre",
        "2676": "Ġmiles",
        "2677": "ees",
        "2678": "ront",
        "2679": "ĠWhile",
        "2680": "Ġtro",
        "2681": "pro",
        "2682": "Ġcreate",
        "2683": "Ġhowever",
        "2684": "ography",
        "2685": "Ġdeg",
        "2686": "Ġparts",
        "2687": "Ġworked",
        "2688": "LM",
        "2689": "Ġcust",
        "2690": "Ġrecorded",
        "2691": "Ġprevent",
        "2692": "ox",
        "2693": "ittle",
        "2694": "Ġbroad",
        "2695": "Ġground",
        "2696": "Ġsecurity",
        "2697": "Ġelectricity",
        "2698": "ĠMet",
        "2699": "Ġ50",
        "2700": "Ġneg",
        "2701": "ĠArab",
        "2702": "Ġcoast",
        "2703": "Ġregions",
        "2704": "Ġsales",
        "2705": "Ġparticip",
        "2706": "Ġmonths",
        "2707": "Ġtemperature",
        "2708": "Ġtitles",
        "2709": "Ã³",
        "2710": "ĠSen",
        "2711": "ĠNor",
        "2712": "Ġsize",
        "2713": "Ġgreatest",
        "2714": "Ġbene",
        "2715": "like",
        "2716": "Ġste",
        "2717": "Ġgrowth",
        "2718": "Ġdom",
        "2719": "'t",
        "2720": "venue",
        "2721": "stant",
        "2722": "Ġreached",
        "2723": "ĠAnt",
        "2724": "Ġ1960",
        "2725": "Ġrelease",
        "2726": "aches",
        "2727": "Ġforms",
        "2728": "Ġapproximately",
        "2729": "eum",
        "2730": "Ġdate",
        "2731": "ĠGreek",
        "2732": "stitute",
        "2733": "Ġhot",
        "2734": "iting",
        "2735": "Ġmedia",
        "2736": "ĠGroup",
        "2737": "ari",
        "2738": "ĠItaly",
        "2739": "Ġrelationship",
        "2740": "itude",
        "2741": "ander",
        "2742": "Ġcolle",
        "2743": "Ġship",
        "2744": "ĠSoviet",
        "2745": "Ġcoll",
        "2746": "pecially",
        "2747": "Ġcop",
        "2748": "ĠItalian",
        "2749": "Ġhit",
        "2750": "Ġmention",
        "2751": "idence",
        "2752": "served",
        "2753": "Ġstrong",
        "2754": "year",
        "2755": "ha",
        "2756": "Ġstyle",
        "2757": "à¤",
        "2758": "Ġloss",
        "2759": "Ġcontribut",
        "2760": "Ġtog",
        "2761": "lected",
        "2762": "Ġsubject",
        "2763": "Ġcommunity",
        "2764": "pped",
        "2765": "Ġ1970",
        "2766": "Ġengineering",
        "2767": "..",
        "2768": "ribution",
        "2769": "Ġeconomy",
        "2770": "Ġelements",
        "2771": "ya",
        "2772": "ketball",
        "2773": "resh",
        "2774": "Ġawarded",
        "2775": "known",
        "2776": "Ġtogether",
        "2777": "Ġsports",
        "2778": "Ġaccess",
        "2779": "Ġqual",
        "2780": "ĠGra",
        "2781": "Ġintern",
        "2782": "struct",
        "2783": "cell",
        "2784": "ira",
        "2785": "aut",
        "2786": "ĠMad",
        "2787": "ought",
        "2788": "Ġnovel",
        "2789": "Ġexamples",
        "2790": "ops",
        "2791": "Ġder",
        "2792": "Ġsound",
        "2793": "Ġaud",
        "2794": "Ġfrequ",
        "2795": "CA",
        "2796": "Ġsquare",
        "2797": "ĠAtlantic",
        "2798": "Ġcricket",
        "2799": "Ġvillage",
        "2800": "Ġtraditional",
        "2801": "ĠMichael",
        "2802": "ĠAlthough",
        "2803": "Ġbecoming",
        "2804": "istan",
        "2805": "Ġdru",
        "2806": "iding",
        "2807": "Ġprimary",
        "2808": "Ġwrote",
        "2809": "lease",
        "2810": "anding",
        "2811": "Ġoutside",
        "2812": "Ġlower",
        "2813": "Ġmag",
        "2814": "adium",
        "2815": "ĠTra",
        "2816": "Ġyoung",
        "2817": "ĠHaw",
        "2818": "ĠVirgin",
        "2819": "Ġmechan",
        "2820": "inister",
        "2821": "ĠPat",
        "2822": "val",
        "2823": "nal",
        "2824": "Ġonce",
        "2825": "tra",
        "2826": "Ġwind",
        "2827": "olk",
        "2828": "ements",
        "2829": "ĠMod",
        "2830": "Ġcharg",
        "2831": "bit",
        "2832": "Ġbrother",
        "2833": "anded",
        "2834": "cont",
        "2835": "ĠMer",
        "2836": "Ġtask",
        "2837": "ĠOff",
        "2838": "Ġaccom",
        "2839": "ij",
        "2840": "Ġworking",
        "2841": "Ġ2002",
        "2842": "Ġoriginally",
        "2843": "Ġ26",
        "2844": "Ġinvent",
        "2845": "Ġmovement",
        "2846": "ache",
        "2847": "aff",
        "2848": "Ġprem",
        "2849": "ĠBel",
        "2850": "Ġadded",
        "2851": "uries",
        "2852": "Ġespecially",
        "2853": "Ġphil",
        "2854": "Ġdoc",
        "2855": "Ġmathem",
        "2856": "ĠTer",
        "2857": "Ġins",
        "2858": "Ġfight",
        "2859": "Ġfeet",
        "2860": "Ġhigher",
        "2861": "Ġquant",
        "2862": "Ġbatter",
        "2863": "ators",
        "2864": "Ġabove",
        "2865": "wik",
        "2866": "Ġhol",
        "2867": "Ġregular",
        "2868": "ceed",
        "2869": "Ġaltern",
        "2870": "ounter",
        "2871": "Ġsuggest",
        "2872": "ĠBlack",
        "2873": "Ġpossible",
        "2874": "Ġactive",
        "2875": "Ġkilomet",
        "2876": "Ġtarg",
        "2877": "Ġtrad",
        "2878": "craft",
        "2879": "ĠMusic",
        "2880": "Ġ23",
        "2881": "ipl",
        "2882": "ech",
        "2883": "Ġforces",
        "2884": "ĠList",
        "2885": "Ġright",
        "2886": "ĠMost",
        "2887": "bert",
        "2888": "ression",
        "2889": "off",
        "2890": "Ġcompetition",
        "2891": "Ġcontent",
        "2892": "oss",
        "2893": "ĠAustralian",
        "2894": "imin",
        "2895": "ston",
        "2896": "Ġalmost",
        "2897": "Ġculture",
        "2898": "Ġcampaign",
        "2899": "ĠDel",
        "2900": "Ġseen",
        "2901": "198",
        "2902": "ĠPer",
        "2903": "Ġ(/",
        "2904": "Ġoil",
        "2905": "Éª",
        "2906": "Ġliving",
        "2907": "Ġrespect",
        "2908": "uals",
        "2909": "Ġrelated",
        "2910": "Ġrecords",
        "2911": "istor",
        "2912": "ĠBest",
        "2913": "itan",
        "2914": "Ġspread",
        "2915": "ĠSea",
        "2916": "osition",
        "2917": "ĠPaul",
        "2918": "gypt",
        "2919": "ĠParty",
        "2920": "ĠRobert",
        "2921": "atively",
        "2922": "Ġcal",
        "2923": "Ġphysical",
        "2924": "Ġincrease",
        "2925": "edia",
        "2926": "ĠFl",
        "2927": "Ġrate",
        "2928": "ocratic",
        "2929": "Ġeventually",
        "2930": "anted",
        "2931": "Ġstar",
        "2932": "Ġcolon",
        "2933": "25",
        "2934": "Ġdise",
        "2935": "ville",
        "2936": "Ġunivers",
        "2937": "based",
        "2938": "Ġprior",
        "2939": "Ġcustom",
        "2940": "Ġorganization",
        "2941": "Ġcontinued",
        "2942": "ills",
        "2943": "Ġnumerous",
        "2944": "osing",
        "2945": "Ġdat",
        "2946": "igital",
        "2947": "Ġenvironment",
        "2948": "edy",
        "2949": "ging",
        "2950": "Ġdistrict",
        "2951": "Ġaway",
        "2952": "Ġnature",
        "2953": "ume",
        "2954": "Ġrelig",
        "2955": "utions",
        "2956": "hib",
        "2957": "Ġsurv",
        "2958": "pid",
        "2959": "Ġprimarily",
        "2960": "Ġarg",
        "2961": "iff",
        "2962": "spe",
        "2963": "Ġdeterm",
        "2964": "uture",
        "2965": "ĠOcean",
        "2966": "atory",
        "2967": "ĠMah",
        "2968": "Ġstage",
        "2969": "Ġsouthern",
        "2970": "Ġdam",
        "2971": "ffee",
        "2972": "right",
        "2973": "eles",
        "2974": "ampion",
        "2975": "Ġmanagement",
        "2976": "Ġadditional",
        "2977": "go",
        "2978": "Ġdefin",
        "2979": "Ġstructure",
        "2980": "ager",
        "2981": "Ġparticularly",
        "2982": "eleb",
        "2983": "zil",
        "2984": "sel",
        "2985": "ĠPal",
        "2986": "ĠEgypt",
        "2987": "ili",
        "2988": "Ġcaused",
        "2989": "ledge",
        "2990": "Ġdates",
        "2991": "ouncil",
        "2992": "Ġdest",
        "2993": "Ġbreak",
        "2994": "Ġseasons",
        "2995": "aries",
        "2996": "Ġmem",
        "2997": "Ġwords",
        "2998": "Ġhydrogen",
        "2999": "Ġ2001",
        "3000": "Ġresour",
        "3001": "Ġtreat",
        "3002": "Ġcapt",
        "3003": "Ġsinger",
        "3004": "ficult",
        "3005": "Ġlanguages",
        "3006": "ĠSince",
        "3007": "Ġversion",
        "3008": "Ġsingles",
        "3009": "Ġpurp",
        "3010": "ĠWhere",
        "3011": "ĠDo",
        "3012": "Ġstation",
        "3013": "EC",
        "3014": "Ġnuclear",
        "3015": "Ġking",
        "3016": "ennis",
        "3017": "set",
        "3018": "Ġsubsequ",
        "3019": "Ġsigned",
        "3020": "Ġ1989",
        "3021": "Ġprote",
        "3022": "Ġeducation",
        "3023": "Ġnorthern",
        "3024": "aker",
        "3025": "ĠQu",
        "3026": "Ġtru",
        "3027": "ĠFrancisco",
        "3028": "azon",
        "3029": "ĠApple",
        "3030": "Ġuniversity",
        "3031": "intend",
        "3032": "Ġ31",
        "3033": "Ġcomplex",
        "3034": "Ġindividual",
        "3035": "Ġ1998",
        "3036": "atch",
        "3037": "Ġspeed",
        "3038": "Ġreported",
        "3039": "Ġable",
        "3040": "Ġislands",
        "3041": "Ġopened",
        "3042": "Ġbig",
        "3043": "ĠSpain",
        "3044": "ĠWood",
        "3045": "irement",
        "3046": "ificial",
        "3047": "Ġentire",
        "3048": "ĠMart",
        "3049": "ĠKore",
        "3050": "Tube",
        "3051": "Ġcities",
        "3052": "Ġsitu",
        "3053": "Ġdifficult",
        "3054": "ician",
        "3055": "ĠSant",
        "3056": "Ġ1999",
        "3057": "ients",
        "3058": "han",
        "3059": "Ġfif",
        "3060": "ĠQue",
        "3061": "elligence",
        "3062": "ĠTur",
        "3063": "ĠAlex",
        "3064": "Ġlarger",
        "3065": "ĠFederer",
        "3066": "Ġappoint",
        "3067": "ĠSystem",
        "3068": "sw",
        "3069": "ream",
        "3070": "Ġsurface",
        "3071": "Ġread",
        "3072": "Ġmountain",
        "3073": "Ġalbums",
        "3074": "works",
        "3075": "Ġrunning",
        "3076": "ĠAg",
        "3077": "ogle",
        "3078": "ĠZe",
        "3079": "ĠMex",
        "3080": "yp",
        "3081": "ĠÂ°",
        "3082": "que",
        "3083": "Ġnation",
        "3084": "vin",
        "3085": "Ġseparated",
        "3086": "Ġquest",
        "3087": "70",
        "3088": "Ġlaunched",
        "3089": "Ġren",
        "3090": "40",
        "3091": "Ġdomin",
        "3092": "sec",
        "3093": "Ġclose",
        "3094": "ao",
        "3095": "ĠBrazil",
        "3096": "odes",
        "3097": "ĠCompany",
        "3098": "ĠFrank",
        "3099": "esla",
        "3100": "Ġexec",
        "3101": "ises",
        "3102": "icated",
        "3103": "Ġpercent",
        "3104": "usion",
        "3105": "Ġgold",
        "3106": "ĠÃ",
        "3107": "Ġord",
        "3108": "Ġrather",
        "3109": "Ġoffice",
        "3110": "ĠCE",
        "3111": "ĠAp",
        "3112": "Ġoldest",
        "3113": "Ġrail",
        "3114": "self",
        "3115": "vised",
        "3116": "alle",
        "3117": "ATO",
        "3118": "bed",
        "3119": "apt",
        "3120": "Ġremains",
        "3121": "Ġconc",
        "3122": "Ġancient",
        "3123": "ĠCamp",
        "3124": "ste",
        "3125": "Ġarticle",
        "3126": "ply",
        "3127": "ola",
        "3128": "ĠĠ",
        "3129": "Ġpen",
        "3130": "Ġstri",
        "3131": "Ġdirected",
        "3132": "ĠRoy",
        "3133": "Ġtri",
        "3134": "Ġfresh",
        "3135": "Ġproblems",
        "3136": "Ġlocation",
        "3137": "ump",
        "3138": "Ġself",
        "3139": "Ġbehind",
        "3140": "ifying",
        "3141": "Ġupon",
        "3142": "axim",
        "3143": "Ġbatt",
        "3144": "Ġcross",
        "3145": "utch",
        "3146": "orage",
        "3147": "Ġwhose",
        "3148": "ĠCont",
        "3149": "ĠFirst",
        "3150": "ĠTo",
        "3151": "Ġsmaller",
        "3152": "rick",
        "3153": "ĠRecord",
        "3154": "iant",
        "3155": "Ġ1997",
        "3156": "Ġnomin",
        "3157": "ĠInc",
        "3158": "Ġfem",
        "3159": "Ġsequ",
        "3160": "Ġpark",
        "3161": "key",
        "3162": "asc",
        "3163": "ĠLLM",
        "3164": "ĠYouTube",
        "3165": "ĠIf",
        "3166": "ĠOther",
        "3167": "akers",
        "3168": "Ġput",
        "3169": "chest",
        "3170": "ĠHen",
        "3171": "iers",
        "3172": "Ġmeaning",
        "3173": "ĠMass",
        "3174": "Ġmother",
        "3175": "Ġprivate",
        "3176": "ĠSec",
        "3177": "Ġvoc",
        "3178": "ĠArmy",
        "3179": "FL",
        "3180": "Ġsearch",
        "3181": "ĠMount",
        "3182": "icon",
        "3183": "Ġchanges",
        "3184": "ux",
        "3185": "Ġheadqu",
        "3186": "izing",
        "3187": "ĠAfrican",
        "3188": "list",
        "3189": ");",
        "3190": "ĠMary",
        "3191": "ourt",
        "3192": "ĠDep",
        "3193": "Ġcritic",
        "3194": "ont",
        "3195": "be",
        "3196": "oon",
        "3197": "Ġarr",
        "3198": "ĠTesla",
        "3199": "ita",
        "3200": "Ġlon",
        "3201": "Ġofficially",
        "3202": "Ġcred",
        "3203": "ĠClub",
        "3204": "Ġpressure",
        "3205": "Ġapplications",
        "3206": "berg",
        "3207": "back",
        "3208": "Ġsite",
        "3209": "overs",
        "3210": "ĠParis",
        "3211": "ems",
        "3212": "intendo",
        "3213": "Ġcenter",
        "3214": "Ġfeder",
        "3215": "ĠEastern",
        "3216": "Ġcompleted",
        "3217": "Ġisland",
        "3218": "Ġinj",
        "3219": "ĠWe",
        "3220": "ĠDist",
        "3221": "Ġbehav",
        "3222": "Ġfruit",
        "3223": "Ġpractice",
        "3224": "ĠAmazon",
        "3225": "Ġcollege",
        "3226": "ĠKar",
        "3227": "Ġmeans",
        "3228": "BC",
        "3229": "ixed",
        "3230": "ĠPay",
        "3231": "Ġ2003",
        "3232": "ĠChristian",
        "3233": "Ġconditions",
        "3234": "Ġlab",
        "3235": "Ġdefined",
        "3236": "âĢ¢",
        "3237": "Ġepis",
        "3238": "Ġlik",
        "3239": "ĠGoogle",
        "3240": "Ġdried",
        "3241": "Ġitself",
        "3242": "Ġ1991",
        "3243": "ength",
        "3244": "ivity",
        "3245": "It",
        "3246": "ables",
        "3247": "itor",
        "3248": "anc",
        "3249": "ĠLatin",
        "3250": "abit",
        "3251": "ID",
        "3252": "lying",
        "3253": "isation",
        "3254": "yani",
        "3255": "Ġmusical",
        "3256": "ala",
        "3257": "Americ",
        "3258": "Ġjour",
        "3259": "Ġsaf",
        "3260": "vert",
        "3261": "80",
        "3262": "Ġbenef",
        "3263": "ĠBh",
        "3264": "Ġprincip",
        "3265": "ditionally",
        "3266": "ĠMark",
        "3267": "ighb",
        "3268": "Ġcorpor",
        "3269": "Ġcharacters",
        "3270": "esh",
        "3271": "Ġboard",
        "3272": "ona",
        "3273": "estival",
        "3274": "Ġelection",
        "3275": "Ġpow",
        "3276": "opp",
        "3277": "Ġinvolved",
        "3278": "ids",
        "3279": "Ġtransfer",
        "3280": "olic",
        "3281": "Ġtool",
        "3282": "rd",
        "3283": "Ġpers",
        "3284": "alls",
        "3285": "ĠLaw",
        "3286": "Ġcry",
        "3287": "Ġinstru",
        "3288": "Ġproperty",
        "3289": "Ġfranch",
        "3290": "ĠNintendo",
        "3291": "ounded",
        "3292": "Ġbrand",
        "3293": "ĠChic",
        "3294": "Ġgoal",
        "3295": "Ġgoals",
        "3296": "Ġdefeated",
        "3297": "por",
        "3298": "Ġviol",
        "3299": "Ġapproach",
        "3300": "ĠStrat",
        "3301": "Ġhous",
        "3302": "Ġcourse",
        "3303": "owl",
        "3304": "Ġcoach",
        "3305": "DP",
        "3306": "ĠThomas",
        "3307": "Ġcase",
        "3308": "Ġcars",
        "3309": "Ġimpact",
        "3310": "Ġpeak",
        "3311": "Ġprotect",
        "3312": "aud",
        "3313": "Ġperformed",
        "3314": "anced",
        "3315": "Ġmill",
        "3316": "Ġdirector",
        "3317": "hood",
        "3318": "ĠInter",
        "3319": "Ġhor",
        "3320": "Ġinfluence",
        "3321": "Ġpositive",
        "3322": "Ġmovie",
        "3323": "Ġadop",
        "3324": "onse",
        "3325": "Ġrapid",
        "3326": "Ġmentioned",
        "3327": "Ġearlier",
        "3328": "ras",
        "3329": "ibility",
        "3330": "inct",
        "3331": "Ġcode",
        "3332": "Ġdry",
        "3333": "fin",
        "3334": "Ġrequired",
        "3335": "Ġbooks",
        "3336": "Ġcoffee",
        "3337": "Ġtarget",
        "3338": "Ġclimate",
        "3339": "airs",
        "3340": "uning",
        "3341": "ĠFootball",
        "3342": "Ġreturned",
        "3343": "aps",
        "3344": "Ġranked",
        "3345": "Ġconsists",
        "3346": "icles",
        "3347": "Ġelected",
        "3348": "Ġresident",
        "3349": "asy",
        "3350": "Ġneighb",
        "3351": "ĠSouthern",
        "3352": "ental",
        "3353": "ĠMil",
        "3354": "istance",
        "3355": "Ġenter",
        "3356": "ript",
        "3357": "Ġobjects",
        "3358": "ĠCharles",
        "3359": "Ġstudents",
        "3360": "itte",
        "3361": "nder",
        "3362": "eh",
        "3363": "ĠDiv",
        "3364": "ĠMicro",
        "3365": "bre",
        "3366": "Ġ1950",
        "3367": "Ġrequire",
        "3368": "ails",
        "3369": "bon",
        "3370": "Ġemp",
        "3371": "Ġceleb",
        "3372": "Ġvir",
        "3373": "Ġkeep",
        "3374": "hold",
        "3375": "ipedia",
        "3376": "ĠRussia",
        "3377": "ĠSam",
        "3378": "phy",
        "3379": "rm",
        "3380": "Ġagre",
        "3381": "Ġdomest",
        "3382": "Ġfeatured",
        "3383": "Ġlog",
        "3384": "Ġrain",
        "3385": "ura",
        "3386": "Ġeffects",
        "3387": "ĠSm",
        "3388": "bers",
        "3389": "Ġdeep",
        "3390": "ĠIslands",
        "3391": "Ã¶",
        "3392": "ĠOlympics",
        "3393": "ĠBen",
        "3394": "Ġfish",
        "3395": "Ġmajority",
        "3396": "roy",
        "3397": "ena",
        "3398": "Ġraised",
        "3399": "ĠNATO",
        "3400": "Ġfuture",
        "3401": "ĠSwift",
        "3402": "ĠStre",
        "3403": "enez",
        "3404": "Al",
        "3405": "ĠTamil",
        "3406": "Ġoperating",
        "3407": "Ġcateg",
        "3408": "Ġinsp",
        "3409": "Ġclos",
        "3410": "Ġbeginning",
        "3411": "wing",
        "3412": "Ġever",
        "3413": "Ġproblem",
        "3414": "irl",
        "3415": "ĠChe",
        "3416": "ingu",
        "3417": "ĠMiddle",
        "3418": "selves",
        "3419": "ĠDisney",
        "3420": "ĠBu",
        "3421": "astic",
        "3422": "Ġmatches",
        "3423": "Ġ60",
        "3424": "ada",
        "3425": "Ġbetter",
        "3426": "Ġreview",
        "3427": "Ġfinished",
        "3428": "Ġinstead",
        "3429": "Ġblock",
        "3430": "Ġ1992",
        "3431": "outheast",
        "3432": "Ġweight",
        "3433": "Ġunderst",
        "3434": "ĠWhich",
        "3435": "Ġcolor",
        "3436": "Ġthemselves",
        "3437": "anks",
        "3438": "sych",
        "3439": "Ġer",
        "3440": "ĠOs",
        "3441": "enezuel",
        "3442": "Ġpie",
        "3443": "citation",
        "3444": "eff",
        "3445": "Ġterritory",
        "3446": "iance",
        "3447": "irm",
        "3448": "ett",
        "3449": "Ġrevenue",
        "3450": "ĠUK",
        "3451": "Ġ1983",
        "3452": "ĠCouncil",
        "3453": "ĠJose",
        "3454": "Ġdram",
        "3455": "Ġknowledge",
        "3456": "Ġruns",
        "3457": "Ġice",
        "3458": "Ġappeared",
        "3459": "ĠGeneral",
        "3460": "Ġliterature",
        "3461": "ĠWhite",
        "3462": "iences",
        "3463": "Ġextrem",
        "3464": "ĠStar",
        "3465": "Ġlongest",
        "3466": "igned",
        "3467": "Ġgave",
        "3468": "Ġpurch",
        "3469": "ĠCivil",
        "3470": "Ġartist",
        "3471": "ĠCanadian",
        "3472": "cks",
        "3473": "Ġchem",
        "3474": "rag",
        "3475": "Ġast",
        "3476": "uous",
        "3477": "itzer",
        "3478": "oston",
        "3479": "\")",
        "3480": "org",
        "3481": "Ġmight",
        "3482": "An",
        "3483": "ĠPers",
        "3484": "ĠHot",
        "3485": "Ġnearly",
        "3486": "pass",
        "3487": "Ġremov",
        "3488": "Ġimplement",
        "3489": "Ġmathemat",
        "3490": "Ġwriter",
        "3491": "Ġfast",
        "3492": "Ġ1996",
        "3493": "Ġlines",
        "3494": "Ġcurrently",
        "3495": "Ġrisk",
        "3496": "Ġsources",
        "3497": "ension",
        "3498": "ĠRecords",
        "3499": "Ġwife",
        "3500": "Ġcome",
        "3501": "inary",
        "3502": "ocks",
        "3503": "Ġretirement",
        "3504": "medi",
        "3505": "ĠPan",
        "3506": "Ġeastern",
        "3507": "ĠPrize",
        "3508": "Ġawards",
        "3509": "ĠVenezuel",
        "3510": "Ġdevice",
        "3511": "servation",
        "3512": "isp",
        "3513": "ulture",
        "3514": "large",
        "3515": "Ġtaken",
        "3516": "force",
        "3517": "ĠMany",
        "3518": "ios",
        "3519": "Ġmulti",
        "3520": "not",
        "3521": "ado",
        "3522": "Ġsimple",
        "3523": "Ġsynt",
        "3524": "Ġparent",
        "3525": "ĠLos",
        "3526": "Ġpotential",
        "3527": "Ġbasketball",
        "3528": "Ġearliest",
        "3529": "ĠSeattle",
        "3530": "Ġannual",
        "3531": "ensus",
        "3532": "ĠGolden",
        "3533": "Ġcause",
        "3534": "imal",
        "3535": "Ġadvant",
        "3536": "Ġegg",
        "3537": "istics",
        "3538": "Ġsee",
        "3539": "Ġwhether",
        "3540": "Ġsat",
        "3541": "lete",
        "3542": "nam",
        "3543": "Ġdigital",
        "3544": "Ġdistribution",
        "3545": "Ġdeal",
        "3546": "Ġriver",
        "3547": "ressed",
        "3548": "ĠJacks",
        "3549": "Ġgreen",
        "3550": "Ġstorage",
        "3551": "ĠTom",
        "3552": "Ġplant",
        "3553": "NA",
        "3554": "eds",
        "3555": "rate",
        "3556": "aging",
        "3557": "ĠCO",
        "3558": "ĠSwiss",
        "3559": "Ġ500",
        "3560": "cel",
        "3561": "Ġsil",
        "3562": "Ġdisease",
        "3563": "Ġnever",
        "3564": "Ġserve",
        "3565": "ĠChicago",
        "3566": "Ġweap",
        "3567": "Ġspeech",
        "3568": "Ġlevels",
        "3569": "ĠDemocratic",
        "3570": "Ġfederal",
        "3571": "ister",
        "3572": "Ġdocument",
        "3573": "Ġ1994",
        "3574": "ĠRam",
        "3575": "Ġswe",
        "3576": "enty",
        "3577": "Ġplants",
        "3578": "also",
        "3579": "Ġsurround",
        "3580": "urban",
        "3581": "Ġimm",
        "3582": "Ġquarter",
        "3583": "ibr",
        "3584": "Ġexpect",
        "3585": "Ġincorpor",
        "3586": "Ġinitial",
        "3587": "cast",
        "3588": "Ġallowed",
        "3589": "ports",
        "3590": "Ġcast",
        "3591": "ĠInstitute",
        "3592": "Äģ",
        "3593": "Ġ/",
        "3594": "Ġphilos",
        "3595": "Ġresponse",
        "3596": "Ġsumm",
        "3597": "Ġlaws",
        "3598": "Ġthus",
        "3599": "aring",
        "3600": "ĠTime",
        "3601": "izes",
        "3602": "gor",
        "3603": "Ġsea",
        "3604": "Ġhours",
        "3605": "actions",
        "3606": "rish",
        "3607": "Ġwealth",
        "3608": "ĠCourt",
        "3609": "Ġsens",
        "3610": "jp",
        "3611": "ĠMexico",
        "3612": "Ġcharge",
        "3613": "PT",
        "3614": "gent",
        "3615": "ĠJackson",
        "3616": "Ġabilities",
        "3617": "Ġkilometres",
        "3618": "Pal",
        "3619": "Ġrules",
        "3620": "Ġaccording",
        "3621": "Ġchanged",
        "3622": "rupt",
        "3623": "Ġallows",
        "3624": "ĠDr",
        "3625": "Ġtransport",
        "3626": "ĠFilm",
        "3627": "Ġcontract",
        "3628": "Ġfifth",
        "3629": "ection",
        "3630": "Ġfactors",
        "3631": "Ġchief",
        "3632": "ĠBoston",
        "3633": "ĠĊ",
        "3634": "ĠSur",
        "3635": "aland",
        "3636": "orial",
        "3637": "ĠBank",
        "3638": "23",
        "3639": "ĠHawai",
        "3640": "Ġcit",
        "3641": "ulated",
        "3642": "Ġdirectly",
        "3643": "izations",
        "3644": "Ġregarded",
        "3645": "Ġgrew",
        "3646": "American",
        "3647": "Ġquick",
        "3648": "Ġcook",
        "3649": "ĠBut",
        "3650": "75",
        "3651": "ĠOl",
        "3652": "ounds",
        "3653": "Ġ1995",
        "3654": "iament",
        "3655": "ga",
        "3656": "uster",
        "3657": "65",
        "3658": "ER",
        "3659": "rel",
        "3660": "ĠVirginia",
        "3661": "Ġtrade",
        "3662": "ĠLou",
        "3663": "iques",
        "3664": "raction",
        "3665": "equ",
        "3666": "Ġincreasing",
        "3667": "ki",
        "3668": "Ġhighly",
        "3669": "Ġscientific",
        "3670": "Ġcut",
        "3671": "Ġill",
        "3672": "hing",
        "3673": "Ġchampionships",
        "3674": "ĠRichard",
        "3675": "Ġoccurred",
        "3676": "Ġbelieved",
        "3677": "Ġparam",
        "3678": "ida",
        "3679": "Ġlimited",
        "3680": "Ġautom",
        "3681": "Ġappointed",
        "3682": "ription",
        "3683": "Ġcomponents",
        "3684": "Ġlonger",
        "3685": "Ġracing",
        "3686": "road",
        "3687": "iles",
        "3688": "Ġended",
        "3689": "unt",
        "3690": "II",
        "3691": "Ġoutput",
        "3692": "Ġfront",
        "3693": "Ġroad",
        "3694": "rian",
        "3695": "Ġoperations",
        "3696": "liament",
        "3697": "itzerland",
        "3698": "ĠKenn",
        "3699": "ĠAngeles",
        "3700": "ĠDistrict",
        "3701": "ĠIntern",
        "3702": "Wh",
        "3703": "Ġhumans",
        "3704": "CC",
        "3705": "ĠBud",
        "3706": "Ġconstruction",
        "3707": "Ġneural",
        "3708": "Ġdou",
        "3709": "Ġdecision",
        "3710": "alled",
        "3711": "Ġdivision",
        "3712": "icip",
        "3713": "change",
        "3714": "Ġhelped",
        "3715": "Ġintended",
        "3716": "aval",
        "3717": "Ġhimself",
        "3718": "Ar",
        "3719": "omic",
        "3720": "flict",
        "3721": "ĠZealand",
        "3722": "appen",
        "3723": "Ġintelligence",
        "3724": "24",
        "3725": "ato",
        "3726": "Ġbur",
        "3727": "Ġcontains",
        "3728": "ĠGar",
        "3729": "Ġholid",
        "3730": "jpg",
        "3731": "imb",
        "3732": "ĠAut",
        "3733": "Ġvice",
        "3734": "Ġseparate",
        "3735": "rought",
        "3736": "ĠPlease",
        "3737": "Ġens",
        "3738": "Ġability",
        "3739": "Ġess",
        "3740": "ĠGeorg",
        "3741": "Ġpredict",
        "3742": "Ġgeneration",
        "3743": "ĠArch",
        "3744": "onald",
        "3745": "ĠMoon",
        "3746": "Ġanimals",
        "3747": "Ġwood",
        "3748": "ĠSummer",
        "3749": "ĠTex",
        "3750": "ĠNad",
        "3751": "Ġstudies",
        "3752": "largest",
        "3753": "Ġmeet",
        "3754": "Ġresponsible",
        "3755": "Ġcultural",
        "3756": "Ġchart",
        "3757": "Ġtrack",
        "3758": "Ġbattle",
        "3759": "Ġ1993",
        "3760": "ava",
        "3761": "ky",
        "3762": "Ġcollect",
        "3763": "iger",
        "3764": "Ġstudied",
        "3765": "ĠMiss",
        "3766": "itors",
        "3767": "Ġattended",
        "3768": "ĠOffice",
        "3769": "ĠStreet",
        "3770": "ĠChurch",
        "3771": "Ġalways",
        "3772": "Ġobtain",
        "3773": "ĠMartin",
        "3774": "ĠValley",
        "3775": "Ġdiscovered",
        "3776": "oo",
        "3777": "Ġcenturies",
        "3778": "ĠGovern",
        "3779": "As",
        "3780": "Ġacquired",
        "3781": "ĠDivision",
        "3782": "atform",
        "3783": "Ġexcept",
        "3784": "Ġinstit",
        "3785": "Ġprogress",
        "3786": "Ġadj",
        "3787": "Ġrule",
        "3788": "ockey",
        "3789": "aily",
        "3790": "ender",
        "3791": "elled",
        "3792": "Ġ1988",
        "3793": "Ġpolicy",
        "3794": "ĠCarol",
        "3795": "Ġcritical",
        "3796": "ÉĽ",
        "3797": "cies",
        "3798": "Ġcho",
        "3799": "ĠBig",
        "3800": "Ġsolid",
        "3801": "ipment",
        "3802": "ĠCro",
        "3803": "Ġstra",
        "3804": "achus",
        "3805": "Ġmakes",
        "3806": "BS",
        "3807": "ĠTV",
        "3808": "ĠDutch",
        "3809": "ĠSim",
        "3810": "aming",
        "3811": "Ġlisted",
        "3812": "ora",
        "3813": "Ġtransl",
        "3814": "stein",
        "3815": "ĠLuc",
        "3816": "enced",
        "3817": "ĠFar",
        "3818": "ansion",
        "3819": "Ġthreat",
        "3820": "olar",
        "3821": "Ġscored",
        "3822": "can",
        "3823": "Ġfav",
        "3824": "OS",
        "3825": "oid",
        "3826": "Ġphen",
        "3827": "Ġblood",
        "3828": "Ġmethods",
        "3829": "ropol",
        "3830": "pes",
        "3831": "Ġinitially",
        "3832": "Ġ1985",
        "3833": "asion",
        "3834": "Ġtrees",
        "3835": "Ġdatab",
        "3836": "ners",
        "3837": "ĠTru",
        "3838": "Ġsand",
        "3839": "Ġdead",
        "3840": "500",
        "3841": "ĠPortug",
        "3842": "ĠMac",
        "3843": "Ġlength",
        "3844": "urrent",
        "3845": "ĠJo",
        "3846": "Ġvary",
        "3847": "Ġeffic",
        "3848": "Ġwriting",
        "3849": "omm",
        "3850": "rey",
        "3851": "29",
        "3852": "ĠHenry",
        "3853": "Ġaccept",
        "3854": "ties",
        "3855": "Ġdivided",
        "3856": "onst",
        "3857": "Ġconflict",
        "3858": "Ġwinner",
        "3859": "Ġreceive",
        "3860": "eks",
        "3861": "Ġfranchise",
        "3862": "thlet",
        "3863": "67",
        "3864": "aka",
        "3865": "Ġpassed",
        "3866": "ĠBowl",
        "3867": "head",
        "3868": "Ġtoday",
        "3869": "ollowing",
        "3870": "aylor",
        "3871": "Ġvictory",
        "3872": "soft",
        "3873": "ands",
        "3874": "Ġrefers",
        "3875": "Ġaffect",
        "3876": "Ġ1940",
        "3877": "ened",
        "3878": "Ġdegree",
        "3879": "Ġconsec",
        "3880": "Ġaction",
        "3881": "ĠMassachus",
        "3882": "etts",
        "3883": "Ġblue",
        "3884": "Ġdirection",
        "3885": "ĠGames",
        "3886": "Ġ1965",
        "3887": "ĠLake",
        "3888": "Ġhistorical",
        "3889": "arters",
        "3890": "ĠWal",
        "3891": "Ġpreviously",
        "3892": "Ġborder",
        "3893": "Ġnorm",
        "3894": "Ġkilled",
        "3895": "ĠGal",
        "3896": "Ġmove",
        "3897": "run",
        "3898": "ĠEach",
        "3899": "Ġresources",
        "3900": "ĠBrown",
        "3901": "Ġindividuals",
        "3902": "Ġjud",
        "3903": "ider",
        "3904": "ĠMassachusetts",
        "3905": "Ã¨",
        "3906": "ĠHy",
        "3907": "cluding",
        "3908": "Ġbirth",
        "3909": "Ġbomb",
        "3910": "ĠFI",
        "3911": "Ġweeks",
        "3912": "28",
        "3913": "ĠMasters",
        "3914": "Ġartificial",
        "3915": "Ġmeat",
        "3916": "ĠBattle",
        "3917": "ested",
        "3918": "ĠGreen",
        "3919": "ĠPayPal",
        "3920": "crease",
        "3921": "obe",
        "3922": "26",
        "3923": "Ġwestern",
        "3924": "ĠSociety",
        "3925": "Ġet",
        "3926": "Ġindex",
        "3927": "Ġpron",
        "3928": "Ġcou",
        "3929": "Ġveh",
        "3930": "Ġstated",
        "3931": "Ġsimply",
        "3932": "ĠBell",
        "3933": "ortheast",
        "3934": "Ġimpl",
        "3935": "ĠNorthern",
        "3936": "ĠSwitzerland",
        "3937": "ked",
        "3938": "Ġarchitecture",
        "3939": "arden",
        "3940": "Ġearth",
        "3941": "men",
        "3942": "ES",
        "3943": "Ġbulleted",
        "3944": "ĠBang",
        "3945": "ĠCenter",
        "3946": "ĠTexas",
        "3947": "ully",
        "3948": "isions",
        "3949": "Ġpolitician",
        "3950": "ĠTem",
        "3951": "Ġsaw",
        "3952": "Ġproduce",
        "3953": "onn",
        "3954": "Ġindependent",
        "3955": "such",
        "3956": "Ġdark",
        "3957": "ĠRock",
        "3958": "ĠNavy",
        "3959": "Ġmaxim",
        "3960": "ĠCricket",
        "3961": "ĠKong",
        "3962": "Ġschools",
        "3963": "Ġ80",
        "3964": "rier",
        "3965": "Ġlaunch",
        "3966": "ĠBet",
        "3967": "ĠJones",
        "3968": "war",
        "3969": "Ġdistance",
        "3970": "Ġcourt",
        "3971": "Ġox",
        "3972": "Ġbiryani",
        "3973": "Ġmetal",
        "3974": "ĠFound",
        "3975": "iring",
        "3976": "Ġtrib",
        "3977": "Ġprovides",
        "3978": "Ġcontain",
        "3979": "ĠMy",
        "3980": "Ġgrand",
        "3981": "Ġusers",
        "3982": "Ġmaterials",
        "3983": "Ġequipment",
        "3984": "isher",
        "3985": "Ġpresented",
        "3986": "amm",
        "3987": "gorith",
        "3988": "Ġmoney",
        "3989": "Ġtakes",
        "3990": "Ġheat",
        "3991": "35",
        "3992": "erman",
        "3993": "Ġnick",
        "3994": "ĠServ",
        "3995": "Ġlikely",
        "3996": "Ġ1986",
        "3997": "ĠWind",
        "3998": "hel",
        "3999": "borne",
        "4000": "ĠMag",
        "4001": "bur",
        "4002": "Ġoccup",
        "4003": "ĠBritain",
        "4004": "ĠUp",
        "4005": "ĠHu",
        "4006": "Ġsnow",
        "4007": "Ġtaking",
        "4008": "Ġindependence",
        "4009": "ĠBol",
        "4010": "Ġactivity",
        "4011": "Ġeffort",
        "4012": "ĠCor",
        "4013": "Ġinh",
        "4014": "Ġdefinition",
        "4015": "39",
        "4016": "Ġspent",
        "4017": "Ġwinter",
        "4018": "gl",
        "4019": "Ġreb",
        "4020": "ecause",
        "4021": "Ġidea",
        "4022": "Ġestablish",
        "4023": "inter",
        "4024": "ĠStratoc",
        "4025": "oses",
        "4026": "ione",
        "4027": "Ġforeign",
        "4028": "Ġchampion",
        "4029": "rovers",
        "4030": "ext",
        "4031": "Ġplaced",
        "4032": "iab",
        "4033": "Ġlif",
        "4034": "Ġsummary",
        "4035": "Ġbill",
        "4036": "bing",
        "4037": "otic",
        "4038": "ĠForm",
        "4039": "Ġcontact",
        "4040": "Ġ1975",
        "4041": "Ġactivities",
        "4042": "Ġsolar",
        "4043": "ĠOrgan",
        "4044": "Ġbuildings",
        "4045": "Ġsection",
        "4046": "Ġnine",
        "4047": "Ġwhy",
        "4048": "itted",
        "4049": "ĠSenate",
        "4050": "Ġpay",
        "4051": "elt",
        "4052": "fficient",
        "4053": "ĠRoyal",
        "4054": "Ġadult",
        "4055": "ĠOlympic",
        "4056": "ĠBr",
        "4057": "Ġrecognition",
        "4058": "Ġgas",
        "4059": "Ġowned",
        "4060": "Ġparty",
        "4061": "rim",
        "4062": "ributed",
        "4063": "used",
[...]
